{
    "Ā": 0,
    "ā": 1,
    "Ă": 2,
    "ă": 3,
    "Ą": 4,
    "ą": 5,
    "Ć": 6,
    "ć": 7,
    "Ĉ": 8,
    "ĉ": 9,
    "Ċ": 10,
    "ċ": 11,
    "Č": 12,
    "č": 13,
    "Ď": 14,
    "ď": 15,
    "Đ": 16,
    "đ": 17,
    "Ē": 18,
    "ē": 19,
    "Ĕ": 20,
    "ĕ": 21,
    "Ė": 22,
    "ė": 23,
    "Ę": 24,
    "ę": 25,
    "Ě": 26,
    "ě": 27,
    "Ĝ": 28,
    "ĝ": 29,
    "Ğ": 30,
    "ğ": 31,
    "Ġ": 32,
    "!": 33,
    "\"": 34,
    "#": 35,
    "$": 36,
    "%": 37,
    "&": 38,
    "'": 39,
    "(": 40,
    ")": 41,
    "*": 42,
    "+": 43,
    ",": 44,
    "-": 45,
    ".": 46,
    "/": 47,
    "0": 48,
    "1": 49,
    "2": 50,
    "3": 51,
    "4": 52,
    "5": 53,
    "6": 54,
    "7": 55,
    "8": 56,
    "9": 57,
    ":": 58,
    ";": 59,
    "<": 60,
    "=": 61,
    ">": 62,
    "?": 63,
    "@": 64,
    "A": 65,
    "B": 66,
    "C": 67,
    "D": 68,
    "E": 69,
    "F": 70,
    "G": 71,
    "H": 72,
    "I": 73,
    "J": 74,
    "K": 75,
    "L": 76,
    "M": 77,
    "N": 78,
    "O": 79,
    "P": 80,
    "Q": 81,
    "R": 82,
    "S": 83,
    "T": 84,
    "U": 85,
    "V": 86,
    "W": 87,
    "X": 88,
    "Y": 89,
    "Z": 90,
    "[": 91,
    "\\": 92,
    "]": 93,
    "^": 94,
    "_": 95,
    "`": 96,
    "a": 97,
    "b": 98,
    "c": 99,
    "d": 100,
    "e": 101,
    "f": 102,
    "g": 103,
    "h": 104,
    "i": 105,
    "j": 106,
    "k": 107,
    "l": 108,
    "m": 109,
    "n": 110,
    "o": 111,
    "p": 112,
    "q": 113,
    "r": 114,
    "s": 115,
    "t": 116,
    "u": 117,
    "v": 118,
    "w": 119,
    "x": 120,
    "y": 121,
    "z": 122,
    "{": 123,
    "|": 124,
    "}": 125,
    "~": 126,
    "ġ": 127,
    "Ģ": 128,
    "ģ": 129,
    "Ĥ": 130,
    "ĥ": 131,
    "Ħ": 132,
    "ħ": 133,
    "Ĩ": 134,
    "ĩ": 135,
    "Ī": 136,
    "ī": 137,
    "Ĭ": 138,
    "ĭ": 139,
    "Į": 140,
    "į": 141,
    "İ": 142,
    "ı": 143,
    "Ĳ": 144,
    "ĳ": 145,
    "Ĵ": 146,
    "ĵ": 147,
    "Ķ": 148,
    "ķ": 149,
    "ĸ": 150,
    "Ĺ": 151,
    "ĺ": 152,
    "Ļ": 153,
    "ļ": 154,
    "Ľ": 155,
    "ľ": 156,
    "Ŀ": 157,
    "ŀ": 158,
    "Ł": 159,
    "ł": 160,
    "¡": 161,
    "¢": 162,
    "£": 163,
    "¤": 164,
    "¥": 165,
    "¦": 166,
    "§": 167,
    "¨": 168,
    "©": 169,
    "ª": 170,
    "«": 171,
    "¬": 172,
    "Ń": 173,
    "®": 174,
    "¯": 175,
    "°": 176,
    "±": 177,
    "²": 178,
    "³": 179,
    "´": 180,
    "µ": 181,
    "¶": 182,
    "·": 183,
    "¸": 184,
    "¹": 185,
    "º": 186,
    "»": 187,
    "¼": 188,
    "½": 189,
    "¾": 190,
    "¿": 191,
    "À": 192,
    "Á": 193,
    "Â": 194,
    "Ã": 195,
    "Ä": 196,
    "Å": 197,
    "Æ": 198,
    "Ç": 199,
    "È": 200,
    "É": 201,
    "Ê": 202,
    "Ë": 203,
    "Ì": 204,
    "Í": 205,
    "Î": 206,
    "Ï": 207,
    "Ð": 208,
    "Ñ": 209,
    "Ò": 210,
    "Ó": 211,
    "Ô": 212,
    "Õ": 213,
    "Ö": 214,
    "×": 215,
    "Ø": 216,
    "Ù": 217,
    "Ú": 218,
    "Û": 219,
    "Ü": 220,
    "Ý": 221,
    "Þ": 222,
    "ß": 223,
    "à": 224,
    "á": 225,
    "â": 226,
    "ã": 227,
    "ä": 228,
    "å": 229,
    "æ": 230,
    "ç": 231,
    "è": 232,
    "é": 233,
    "ê": 234,
    "ë": 235,
    "ì": 236,
    "í": 237,
    "î": 238,
    "ï": 239,
    "ð": 240,
    "ñ": 241,
    "ò": 242,
    "ó": 243,
    "ô": 244,
    "õ": 245,
    "ö": 246,
    "÷": 247,
    "ø": 248,
    "ù": 249,
    "ú": 250,
    "û": 251,
    "ü": 252,
    "ý": 253,
    "þ": 254,
    "ÿ": 255,
    "<|endoftext|>": 256,
    "Ġt": 257,
    "he": 258,
    "Ġa": 259,
    "Ġs": 260,
    "Ġw": 261,
    "Ġthe": 262,
    "nd": 263,
    "ed": 264,
    "Ġb": 265,
    "Ġto": 266,
    "Ġand": 267,
    "Ġh": 268,
    "Ġf": 269,
    "ĠT": 270,
    "in": 271,
    "Ġwa": 272,
    "re": 273,
    "it": 274,
    "ou": 275,
    "Ġl": 276,
    "Ġd": 277,
    "Ġc": 278,
    "Ġp": 279,
    "ay": 280,
    "Ġm": 281,
    "er": 282,
    "Ġwas": 283,
    "ĠThe": 284,
    "om": 285,
    "Ġhe": 286,
    "is": 287,
    "Ġn": 288,
    "im": 289,
    "ar": 290,
    "on": 291,
    "Ġsa": 292,
    "ll": 293,
    "id": 294,
    "Ġha": 295,
    "Ġg": 296,
    "at": 297,
    "ĠS": 298,
    "ing": 299,
    "ot": 300,
    "en": 301,
    "an": 302,
    "le": 303,
    "or": 304,
    "ir": 305,
    "am": 306,
    "et": 307,
    "ĠH": 308,
    "Ġit": 309,
    "Ġth": 310,
    "ig": 311,
    "ĠThey": 312,
    "Ġpl": 313,
    "Ġin": 314,
    "il": 315,
    "ĠHe": 316,
    "Ġ\"": 317,
    "ow": 318,
    "ver": 319,
    "ri": 320,
    "Ġu": 321,
    "ut": 322,
    "Ġplay": 323,
    "ith": 324,
    "Ġsaid": 325,
    "Ġbe": 326,
    "Ġday": 327,
    "Ġwith": 328,
    "pp": 329,
    "On": 330,
    "Ġo": 331,
    "Ġy": 332,
    "oo": 333,
    "ked": 334,
    "Ġr": 335,
    "Ġher": 336,
    "ce": 337,
    "ld": 338,
    "Ġhis": 339,
    "ĠTim": 340,
    "ĠI": 341,
    "ĠShe": 342,
    "Ġst": 343,
    "ke": 344,
    "Ġe": 345,
    "Ġbig": 346,
    "nt": 347,
    "ck": 348,
    "very": 349,
    "Ġyou": 350,
    "st": 351,
    "ve": 352,
    "end": 353,
    "un": 354,
    "Ġhapp": 355,
    "Ġon": 356,
    "all": 357,
    "riend": 358,
    "Ġfriend": 359,
    "Ġthey": 360,
    "ĠL": 361,
    "ily": 362,
    "Ġwe": 363,
    "Ġhad": 364,
    "Ġup": 365,
    "Ġli": 366,
    "Ġnot": 367,
    "her": 368,
    "Ġwant": 369,
    "itt": 370,
    "Ġof": 371,
    "ad": 372,
    "Ġdo": 373,
    "ĠB": 374,
    "se": 375,
    "Ġhappy": 376,
    "ent": 377,
    "Ġvery": 378,
    "ĠM": 379,
    "es": 380,
    "Ġsaw": 381,
    "One": 382,
    "Ġthat": 383,
    "ould": 384,
    "'s": 385,
    "Ġfor": 386,
    "ittle": 387,
    "Ġmom": 388,
    "Ġlittle": 389,
    "Ġso": 390,
    "Ġsh": 391,
    "Ġshe": 392,
    "ime": 393,
    "ch": 394,
    "Ġnam": 395,
    "Ġtime": 396,
    "Ġk": 397,
    "Ġne": 398,
    "ound": 399,
    ".\"": 400,
    "Ġthere": 401,
    "Ġnamed": 402,
    "Ġbo": 403,
    "Ġsm": 404,
    "Ġwere": 405,
    "Ġwanted": 406,
    "ĠLily": 407,
    "Ġfriends": 408,
    "out": 409,
    "ird": 410,
    "Ġbut": 411,
    "ved": 412,
    "ht": 413,
    "!\"": 414,
    "The": 415,
    "ĠTom": 416,
    "Ġbird": 417,
    "el": 418,
    "ake": 419,
    "Ġan": 420,
    "al": 421,
    "Ġtoo": 422,
    "ome": 423,
    "Ġwent": 424,
    "Ġwh": 425,
    "ide": 426,
    "Once": 427,
    "Ġall": 428,
    "ĠIt": 429,
    "Ġhel": 430,
    "ug": 431,
    "ue": 432,
    "Ġhelp": 433,
    "Ġis": 434,
    "Ġloo": 435,
    "ĠA": 436,
    "Ġupon": 437,
    "Ġlo": 438,
    "ter": 439,
    "ry": 440,
    "Ġtoy": 441,
    "ore": 442,
    "Ġfun": 443,
    "ind": 444,
    "get": 445,
    "ill": 446,
    "ame": 447,
    "Ġas": 448,
    "Ġj": 449,
    "ra": 450,
    "Ġat": 451,
    "gether": 452,
    "Ġcat": 453,
    "Ġdid": 454,
    "Ġre": 455,
    "ur": 456,
    "Ġtogether": 457,
    "ack": 458,
    "Ġse": 459,
    "ly": 460,
    "Ġtre": 461,
    "ood": 462,
    "Ġdog": 463,
    "ic": 464,
    "Ġcould": 465,
    "ted": 466,
    "Ġcan": 467,
    "Ġball": 468,
    "ard": 469,
    "Ġgir": 470,
    "Ġtheir": 471,
    "ark": 472,
    "Ġgirl": 473,
    "Ġplayed": 474,
    "ec": 475,
    "my": 476,
    "Ġhim": 477,
    "Ġgo": 478,
    "way": 479,
    "Ġro": 480,
    "?\"": 481,
    "hed": 482,
    "ain": 483,
    "Ġkn": 484,
    "Ġle": 485,
    "Ġout": 486,
    "hen": 487,
    "Ġare": 488,
    "Ġfr": 489,
    "um": 490,
    "'t": 491,
    "Ġthem": 492,
    "Ġboy": 493,
    "Ġsad": 494,
    "ul": 495,
    "ax": 496,
    "Ġtree": 497,
    "other": 498,
    "oug": 499,
    "Ġman": 500,
    "Ġloved": 501,
    "Ġhave": 502,
    "Ġcl": 503,
    "Ġfound": 504,
    "Ġlooked": 505,
    "Ġsp": 506,
    "ĠSue": 507,
    "Ġstar": 508,
    "Ġsc": 509,
    "one": 510,
    "Ġback": 511,
    "own": 512,
    "hing": 513,
    "are": 514,
    "ĠMax": 515,
    "Ġlike": 516,
    "Ġbec": 517,
    "side": 518,
    "ful": 519,
    "Ġme": 520,
    "op": 521,
    "ong": 522,
    "Ġpark": 523,
    "Ġwould": 524,
    "ight": 525,
    "Ġliked": 526,
    "round": 527,
    "ĠOne": 528,
    "elt": 529,
    "Ġfa": 530,
    "Ġmake": 531,
    "Ġcar": 532,
    "ell": 533,
    "ĠBut": 534,
    "Ġfelt": 535,
    "Ġla": 536,
    "ĠW": 537,
    "Ġasked": 538,
    "ĠSam": 539,
    "You": 540,
    "ared": 541,
    "omet": 542,
    "ice": 543,
    "Ġcame": 544,
    "Ġstarted": 545,
    "Ġnew": 546,
    "ag": 547,
    "Ġsee": 548,
    "Ġno": 549,
    "ought": 550,
    "ouse": 551,
    "ĠBen": 552,
    "Ġal": 553,
    "iled": 554,
    "Ġag": 555,
    "Ġother": 556,
    "Ġgood": 557,
    "pot": 558,
    "Ġsomet": 559,
    "Ġsmall": 560,
    "Ġbr": 561,
    "ob": 562,
    "ss": 563,
    "Ġsmiled": 564,
    "ade": 565,
    "ried": 566,
    "ings": 567,
    "Ġsay": 568,
    "Ġfind": 569,
    "Ġwor": 570,
    "Ġaway": 571,
    "Ġex": 572,
    "Ġfrom": 573,
    "Ġthought": 574,
    "Ġmade": 575,
    "ĠSpot": 576,
    "Ġwhat": 577,
    "Ġhome": 578,
    "Ġco": 579,
    "Ġplaying": 580,
    "ened": 581,
    "Ġsomething": 582,
    "ty": 583,
    "Ġput": 584,
    "Ġevery": 585,
    "Ġwal": 586,
    "ach": 587,
    "Ġmu": 588,
    "ia": 589,
    "uc": 590,
    "ook": 591,
    "ie": 592,
    "ny": 593,
    "ĠF": 594,
    "Ġagain": 595,
    "Ġran": 596,
    "Ġdown": 597,
    "ile": 598,
    "dd": 599,
    "arn": 600,
    "Ġtoys": 601,
    "ave": 602,
    "Ġpr": 603,
    "king": 604,
    "Ġscared": 605,
    "Ġsome": 606,
    "Ġtook": 607,
    "Ġlaug": 608,
    "ĠJ": 609,
    "Ġhouse": 610,
    "Ġfl": 611,
    "if": 612,
    "ab": 613,
    "Ġaround": 614,
    "Ġbox": 615,
    "Ġsw": 616,
    "ure": 617,
    "ick": 618,
    "Ġlearn": 619,
    "ep": 620,
    "ret": 621,
    "ish": 622,
    "oud": 623,
    "uck": 624,
    "Ġyour": 625,
    "Ġlived": 626,
    "ĠYou": 627,
    "Ġthings": 628,
    "Ġsun": 629,
    "Ġthen": 630,
    "Ġwill": 631,
    "ew": 632,
    "Ġbl": 633,
    "Ġmy": 634,
    "as": 635,
    "Ġwhen": 636,
    "Ġab": 637,
    "pped": 638,
    ",\"": 639,
    "us": 640,
    "Ġget": 641,
    "ank": 642,
    "Tim": 643,
    "Th": 644,
    "Ġch": 645,
    "Ġlot": 646,
    "ucy": 647,
    "oth": 648,
    "ap": 649,
    "ump": 650,
    "ĠMia": 651,
    "Ġwho": 652,
    "Ġtried": 653,
    "ist": 654,
    "Ġfe": 655,
    "Ġknow": 656,
    "Ġgot": 657,
    "ited": 658,
    "ust": 659,
    "Ġmany": 660,
    "Ġabout": 661,
    "Ġsays": 662,
    "Ġint": 663,
    "ally": 664,
    "nder": 665,
    "Ġred": 666,
    "Ġknew": 667,
    "Ġpret": 668,
    "ive": 669,
    "Ġdec": 670,
    "Lily": 671,
    "ise": 672,
    "ous": 673,
    "Ġany": 674,
    "au": 675,
    "ĠD": 676,
    "ace": 677,
    "Ġcare": 678,
    "Ġmore": 679,
    "Ġpic": 680,
    "qu": 681,
    "fter": 682,
    "Ġbest": 683,
    "ause": 684,
    "Ġop": 685,
    "Ġbecame": 686,
    "ĠLucy": 687,
    "Ġpo": 688,
    "Ġwater": 689,
    "ways": 690,
    "âĢ": 691,
    "fe": 692,
    "Ġhug": 693,
    "Ġlearned": 694,
    "ĠBob": 695,
    "Ġexc": 696,
    "Ġbecause": 697,
    "ite": 698,
    "Ġalways": 699,
    "Ġlook": 700,
    "Ġoutside": 701,
    "Ġinto": 702,
    "Ġroom": 703,
    "Ġboth": 704,
    "Ġun": 705,
    "ided": 706,
    "ĠSo": 707,
    "Ġshow": 708,
    "Ġlaughed": 709,
    "Ġeat": 710,
    "Ġdecided": 711,
    "ĠAnd": 712,
    "Ġgre": 713,
    "Ġho": 714,
    "urp": 715,
    "udd": 716,
    "ant": 717,
    "Ġpe": 718,
    "ers": 719,
    "Ġv": 720,
    "ĠE": 721,
    "ĠMom": 722,
    "Ġjump": 723,
    "nn": 724,
    "Ġlong": 725,
    "Ġone": 726,
    "Ġke": 727,
    "Ġthis": 728,
    "Ġrun": 729,
    "Ġnice": 730,
    "Yes": 731,
    "Ġexcited": 732,
    "Ġfast": 733,
    "They": 734,
    "Tom": 735,
    "Ġfeel": 736,
    "Ġdad": 737,
    "Ġtold": 738,
    "Ġmo": 739,
    "Ġsk": 740,
    "Ġinside": 741,
    "our": 742,
    "Ġam": 743,
    "Ġtr": 744,
    "Ġsl": 745,
    "ull": 746,
    "lew": 747,
    "Ġsor": 748,
    "Ġtake": 749,
    "urpr": 750,
    "Ġrock": 751,
    "iny": 752,
    "Ġpretty": 753,
    "nna": 754,
    "Ġsurpr": 755,
    "Ġgave": 756,
    "Ġeach": 757,
    "Ġgra": 758,
    "imal": 759,
    "ink": 760,
    "Ġanimal": 761,
    "Ġmuch": 762,
    "Ġhow": 763,
    "Wh": 764,
    "Ġstr": 765,
    "Ġold": 766,
    "Ġneed": 767,
    "But": 768,
    "Ġthan": 769,
    "Ġlet": 770,
    "ven": 771,
    "ara": 772,
    "ro": 773,
    "ged": 774,
    "Ġtow": 775,
    "ess": 776,
    "Ġunder": 777,
    "ĠC": 778,
    "Ġsorry": 779,
    "Ġor": 780,
    "Ġwalked": 781,
    "Ġcle": 782,
    "and": 783,
    "ft": 784,
    "Ġta": 785,
    "Ġhand": 786,
    "ge": 787,
    "Ġte": 788,
    "ised": 789,
    "og": 790,
    "Ġfish": 791,
    "urn": 792,
    "urt": 793,
    "Ġkind": 794,
    "ff": 795,
    "Ġclo": 796,
    "ĠHis": 797,
    "Ġwat": 798,
    "ving": 799,
    "Ġhig": 800,
    "Ġanimals": 801,
    "ase": 802,
    "ĠAmy": 803,
    "Ġjust": 804,
    "Ġus": 805,
    "Ġhappened": 806,
    "ched": 807,
    "Ġfood": 808,
    "pl": 809,
    "Ġsky": 810,
    "Ġflow": 811,
    "here": 812,
    "Ġsn": 813,
    "rom": 814,
    "Ġtry": 815,
    "Ġlist": 816,
    "Ġide": 817,
    "ĠWe": 818,
    "Ġnear": 819,
    "gry": 820,
    "Ġdidn": 821,
    "Ġidea": 822,
    "Ġbet": 823,
    "Ġen": 824,
    "able": 825,
    "ate": 826,
    "ine": 827,
    "Ġfi": 828,
    "Ġflew": 829,
    "eci": 830,
    "Ġits": 831,
    "ream": 832,
    "Thank": 833,
    "Ġcareful": 834,
    "Ġshare": 835,
    "Ġcake": 836,
    "ex": 837,
    "Ġheard": 838,
    "Ġbetter": 839,
    "Ġtw": 840,
    "Ġstor": 841,
    "Ġif": 842,
    "ecial": 843,
    "Ġspecial": 844,
    "Ġdan": 845,
    "pec": 846,
    "ber": 847,
    "ion": 848,
    "ĠTh": 849,
    "Ġbear": 850,
    "Ġlots": 851,
    "Ġwind": 852,
    "lf": 853,
    "more": 854,
    "Ġanymore": 855,
    "udden": 856,
    "Ġclean": 857,
    "Ġnever": 858,
    "Ġfo": 859,
    "Ġdon": 860,
    "Mom": 861,
    "Ġgr": 862,
    "Ġbug": 863,
    "Ġtal": 864,
    "ople": 865,
    "Ġcom": 866,
    "Ġhard": 867,
    "Ġbu": 868,
    "Ġend": 869,
    "ĠThen": 870,
    "Ġby": 871,
    "Ġfly": 872,
    "uddenly": 873,
    "Ġmag": 874,
    "ort": 875,
    "Ġturn": 876,
    "Ġfore": 877,
    "Ġover": 878,
    "ĠAnna": 879,
    "ĠEvery": 880,
    "Ġeven": 881,
    "rm": 882,
    "ĊĊ": 883,
    "Ġlove": 884,
    "Ġcol": 885,
    "Ġsafe": 886,
    "Ġpeople": 887,
    "Ġafter": 888,
    "Ġbad": 889,
    "ady": 890,
    "Ġhigh": 891,
    "Ġfam": 892,
    "Ġground": 893,
    "ak": 894,
    "Ġdoor": 895,
    "imb": 896,
    "Ġcome": 897,
    "bb": 898,
    "Ġshiny": 899,
    "Ġproud": 900,
    "As": 901,
    "Ġopened": 902,
    "Ġclimb": 903,
    "uff": 904,
    "Ġhurt": 905,
    "Ġpicked": 906,
    "Ġblue": 907,
    "Ġloud": 908,
    "pected": 909,
    "Let": 910,
    "Ġche": 911,
    "Ġgive": 912,
    "Ġway": 913,
    "Ġsurprised": 914,
    "Ġgl": 915,
    "'m": 916,
    "expected": 917,
    "Ġunexpected": 918,
    "ild": 919,
    "Ġthanked": 920,
    "Ġcu": 921,
    "Ġbook": 922,
    "ummy": 923,
    "ĠWhen": 924,
    "ĠFrom": 925,
    "Ġcall": 926,
    "Ġcolor": 927,
    "ĠHer": 928,
    "Ġfar": 929,
    "arden": 930,
    "Ġgarden": 931,
    "Ġmagic": 932,
    "Ġever": 933,
    "ĠK": 934,
    "Ġpar": 935,
    "ough": 936,
    "kay": 937,
    "Ġim": 938,
    "Ġhugged": 939,
    "Ġstill": 940,
    "Ġplace": 941,
    "No": 942,
    "Ġunt": 943,
    "ool": 944,
    "Ġoff": 945,
    "ĠSara": 946,
    "age": 947,
    "Ġma": 948,
    "Ġsmile": 949,
    "Ġwalk": 950,
    "ture": 951,
    "ĠP": 952,
    "Ġjumped": 953,
    "Ġfamily": 954,
    "ĠIn": 955,
    "Ġuntil": 956,
    "unny": 957,
    "iz": 958,
    "hes": 959,
    "Ġpa": 960,
    "em": 961,
    "Ġshould": 962,
    "Ġqu": 963,
    "Ġnow": 964,
    "ip": 965,
    "Ġkid": 966,
    "ct": 967,
    "Ġstick": 968,
    "itty": 969,
    "Ġstay": 970,
    "Ġstrong": 971,
    "Ġforest": 972,
    "Ġsto": 973,
    "ane": 974,
    "Ġdra": 975,
    "aut": 976,
    "Ġapp": 977,
    "uffy": 978,
    "dy": 979,
    "Ġbro": 980,
    "Ġboat": 981,
    "Ġgreat": 982,
    "Ġsqu": 983,
    "Ġbra": 984,
    "Ġbeaut": 985,
    "Ġtra": 986,
    "xt": 987,
    "Ġnext": 988,
    "Ġjo": 989,
    "Ġhelped": 990,
    "ĠSally": 991,
    "lease": 992,
    "Ġhat": 993,
    "les": 994,
    "Ġhappily": 995,
    "Ġpicture": 996,
    "Ġstory": 997,
    "iful": 998,
    "ies": 999,
    "Ġbeautiful": 1000,
    "Ġlisten": 1001,
    "ning": 1002,
    "th": 1003,
    "Ġshowed": 1004,
    "Ġwhile": 1005,
    "Ġcalled": 1006,
    "oon": 1007,
    "Ġmet": 1008,
    "Ġclos": 1009,
    "Now": 1010,
    "Ġkids": 1011,
    "pt": 1012,
    "Ġopen": 1013,
    "Ġfrog": 1014,
    "Ġmor": 1015,
    "Ġrem": 1016,
    "luffy": 1017,
    "Ġtown": 1018,
    "Ġsoft": 1019,
    "Ġeveryone": 1020,
    "Can": 1021,
    "It": 1022,
    "ger": 1023,
    "Ġimp": 1024,
    "Ġbeing": 1025,
    "He": 1026,
    "When": 1027,
    "Ġstopped": 1028,
    "Ġad": 1029,
    "rel": 1030,
    "Ġrain": 1031,
    "Ġangry": 1032,
    "by": 1033,
    "Ġyummy": 1034,
    "Ġwatch": 1035,
    "bit": 1036,
    "Ġdoll": 1037,
    "Ġcouldn": 1038,
    "Ġca": 1039,
    "abbit": 1040,
    "vent": 1041,
    "ary": 1042,
    "ĠLet": 1043,
    "ree": 1044,
    "Ġtruck": 1045,
    "Ġde": 1046,
    "ished": 1047,
    "ĠKitty": 1048,
    "Ġmouse": 1049,
    "Ġrabbit": 1050,
    "be": 1051,
    "dded": 1052,
    "Ġate": 1053,
    "ress": 1054,
    "iss": 1055,
    "Ġwo": 1056,
    "ĠFluffy": 1057,
    "Ġlost": 1058,
    "Ġwarm": 1059,
    "Ġslide": 1060,
    "Ġface": 1061,
    "Ġbrave": 1062,
    "Ġgame": 1063,
    "ĠWh": 1064,
    "Ġkeep": 1065,
    "Ġfell": 1066,
    "fore": 1067,
    "Ġleave": 1068,
    "Ġflowers": 1069,
    "Ġtwo": 1070,
    "Ġcook": 1071,
    "owl": 1072,
    "Ġbed": 1073,
    "Ġcry": 1074,
    "Ġpus": 1075,
    "illy": 1076,
    "so": 1077,
    "ock": 1078,
    "Ġsoon": 1079,
    "Ġnoise": 1080,
    "Ġgreen": 1081,
    "Ġalso": 1082,
    "ĠR": 1083,
    "That": 1084,
    "Ġbunny": 1085,
    "ear": 1086,
    "Ġnodded": 1087,
    "Ġwhere": 1088,
    "gan": 1089,
    "self": 1090,
    "Ġfix": 1091,
    "Ġsat": 1092,
    "Ġhaving": 1093,
    "ired": 1094,
    "Hi": 1095,
    "Ġyell": 1096,
    "Ġbefore": 1097,
    "âĢĿ": 1098,
    "Ġkept": 1099,
    "Ġhole": 1100,
    "Ġpain": 1101,
    "âĢľ": 1102,
    "Ġhear": 1103,
    "ble": 1104,
    "day": 1105,
    "Ġstore": 1106,
    "What": 1107,
    "Ġhands": 1108,
    "Ġcatch": 1109,
    "Look": 1110,
    "Ġuse": 1111,
    "irrel": 1112,
    "Then": 1113,
    "Ġsing": 1114,
    "Ġfin": 1115,
    "az": 1116,
    "irst": 1117,
    "Ġused": 1118,
    "Ġmommy": 1119,
    "Ġthr": 1120,
    "Ġexpl": 1121,
    "Ġfunny": 1122,
    "Ġsquirrel": 1123,
    "Ġbirds": 1124,
    "Ben": 1125,
    "ĠNow": 1126,
    "Ġcra": 1127,
    "Ġlooking": 1128,
    "uch": 1129,
    "Ġtired": 1130,
    "Ġey": 1131,
    "Ġgoing": 1132,
    "Ġwait": 1133,
    "Ġbre": 1134,
    "Ġkit": 1135,
    "oy": 1136,
    "eet": 1137,
    "aybe": 1138,
    "leep": 1139,
    "Ġmean": 1140,
    "ange": 1141,
    "thing": 1142,
    "ught": 1143,
    "Ġour": 1144,
    "led": 1145,
    "Ġpull": 1146,
    "air": 1147,
    "Ġdif": 1148,
    "Ġfav": 1149,
    "Ġsunny": 1150,
    "Ġtri": 1151,
    "Ġpond": 1152,
    "ember": 1153,
    "ĠCan": 1154,
    "Ġhas": 1155,
    "chen": 1156,
    "Ġkitchen": 1157,
    "Ġwr": 1158,
    "Ġparty": 1159,
    "Ġthink": 1160,
    "Ġice": 1161,
    "Ġflo": 1162,
    "orn": 1163,
    "oh": 1164,
    "Ġwork": 1165,
    "ting": 1166,
    "ac": 1167,
    "We": 1168,
    "Ġhead": 1169,
    "uit": 1170,
    "Ġbus": 1171,
    "Ġworked": 1172,
    "Ġmess": 1173,
    "Ġdr": 1174,
    "ng": 1175,
    "Ġreal": 1176,
    "ĠDo": 1177,
    "zy": 1178,
    "ious": 1179,
    "ohn": 1180,
    "Ġokay": 1181,
    "Ġothers": 1182,
    "Ġsound": 1183,
    "llow": 1184,
    "Ġmoral": 1185,
    "Ġbeh": 1186,
    "Ġeyes": 1187,
    "ath": 1188,
    "Ġsand": 1189,
    "rew": 1190,
    "Ġtalk": 1191,
    "Ġshared": 1192,
    "Ġadvent": 1193,
    "Ġz": 1194,
    "Ġremember": 1195,
    "ĠâĢľ": 1196,
    "Ġfavor": 1197,
    "joy": 1198,
    "ma": 1199,
    "Ġfavorite": 1200,
    "ello": 1201,
    "Hello": 1202,
    "Ġright": 1203,
    "Ġask": 1204,
    "Ġcuri": 1205,
    "Ġcut": 1206,
    "Ġcold": 1207,
    "Ġri": 1208,
    "Ġhop": 1209,
    "Ġcon": 1210,
    "Ġimport": 1211,
    "Ġhill": 1212,
    "Ġmon": 1213,
    "lly": 1214,
    "Ġdir": 1215,
    "imes": 1216,
    "Ġmaking": 1217,
    "Ġenjoy": 1218,
    "Ġfollow": 1219,
    "Ġcurious": 1220,
    "Ġvo": 1221,
    "Ġpie": 1222,
    "Ġbright": 1223,
    "Ġyard": 1224,
    "ĠG": 1225,
    "At": 1226,
    "Ġflower": 1227,
    "ken": 1228,
    "Don": 1229,
    "Ġsweet": 1230,
    "reed": 1231,
    "Ġmove": 1232,
    "Ġduck": 1233,
    "Ġdis": 1234,
    "Ġrest": 1235,
    "Ġown": 1236,
    "Ġdraw": 1237,
    "Ġfirst": 1238,
    "Ġimportant": 1239,
    "Ġtop": 1240,
    "ĠJack": 1241,
    "Ġsho": 1242,
    "Ġcla": 1243,
    "Ġbegan": 1244,
    "Ġtall": 1245,
    "Ġpick": 1246,
    "Ġblock": 1247,
    "Ġwatched": 1248,
    "ount": 1249,
    "Ġsleep": 1250,
    "Ġbel": 1251,
    "Ġlady": 1252,
    "After": 1253,
    "Ġnight": 1254,
    "Ġthing": 1255,
    "Wow": 1256,
    "ied": 1257,
    "Ġrace": 1258,
    "ster": 1259,
    "Ġtail": 1260,
    "Ġhot": 1261,
    "fere": 1262,
    "Ġhid": 1263,
    "Ġhun": 1264,
    "Ġdiffere": 1265,
    "Ġagreed": 1266,
    "Ġfloor": 1267,
    "Ġshout": 1268,
    "Ġhere": 1269,
    "Ġstop": 1270,
    "ect": 1271,
    "Ġforg": 1272,
    "Ġdark": 1273,
    "ĠThis": 1274,
    "Ġbag": 1275,
    "Ġgrass": 1276,
    "ign": 1277,
    "Ġworry": 1278,
    "Ġsong": 1279,
    "Ġtable": 1280,
    "Ġtast": 1281,
    "Ġtell": 1282,
    "que": 1283,
    "Ġprin": 1284,
    "Ġneeded": 1285,
    "Ġleaves": 1286,
    "aring": 1287,
    "Ġvoice": 1288,
    "Ġyellow": 1289,
    "Ġread": 1290,
    "aper": 1291,
    "Ġfarm": 1292,
    "ĠFin": 1293,
    "Ġru": 1294,
    "Ġtrees": 1295,
    "Ġdress": 1296,
    "Ġhair": 1297,
    "Ġswing": 1298,
    "Why": 1299,
    "Ġdifferent": 1300,
    "Ġdel": 1301,
    "Ġadventure": 1302,
    "Ġwalking": 1303,
    "Ġturned": 1304,
    "Ġsurprise": 1305,
    "Ġplease": 1306,
    "âĢĻ": 1307,
    "ĠMr": 1308,
    "Ġhungry": 1309,
    "Max": 1310,
    "Ġdoes": 1311,
    "Ġcars": 1312,
    "ĠSuddenly": 1313,
    "Ġcolors": 1314,
    "ĠDad": 1315,
    "oom": 1316,
    "Suddenly": 1317,
    "Ġlaugh": 1318,
    "bo": 1319,
    "Sue": 1320,
    "Ġcloser": 1321,
    "ached": 1322,
    "Sam": 1323,
    "Ġpretend": 1324,
    "co": 1325,
    "Ġlion": 1326,
    "ient": 1327,
    "ered": 1328,
    "ila": 1329,
    "Ġbroken": 1330,
    "Ġwood": 1331,
    "Ġprom": 1332,
    "Ġcried": 1333,
    "bye": 1334,
    "Ġwet": 1335,
    "Ġpiece": 1336,
    "Ġfriendly": 1337,
    "ĠTimmy": 1338,
    "Ġfull": 1339,
    "Ġbehind": 1340,
    "Ġtrain": 1341,
    "isy": 1342,
    "Ġdance": 1343,
    "Anna": 1344,
    "ppy": 1345,
    "Ġtouch": 1346,
    "Ġclimbed": 1347,
    "Ġanother": 1348,
    "Ġdanc": 1349,
    "af": 1350,
    "So": 1351,
    "Ġgone": 1352,
    "where": 1353,
    "Ġapple": 1354,
    "Ġsmell": 1355,
    "bbed": 1356,
    "Ġswim": 1357,
    "Ġste": 1358,
    "cked": 1359,
    "Ġblocks": 1360,
    "ater": 1361,
    "Ġfeeling": 1362,
    "sh": 1363,
    "Ġpaper": 1364,
    "ĠThat": 1365,
    "She": 1366,
    "Ġamaz": 1367,
    "ĠAs": 1368,
    "Ġant": 1369,
    "Ġper": 1370,
    "Ġbutter": 1371,
    "Ġrunning": 1372,
    "ĠJane": 1373,
    "Ġreached": 1374,
    "Ġhelping": 1375,
    "Ġlistened": 1376,
    "Ġfair": 1377,
    "iced": 1378,
    "Ġgoodbye": 1379,
    "Ġready": 1380,
    "av": 1381,
    "Ġonly": 1382,
    "Ġhold": 1383,
    "Ġlight": 1384,
    "Ġac": 1385,
    "ray": 1386,
    "aby": 1387,
    "ike": 1388,
    "ĠO": 1389,
    "Ġroll": 1390,
    "Sara": 1391,
    "Ġcream": 1392,
    "ĠBobo": 1393,
    "Ġrepl": 1394,
    "Ġdri": 1395,
    "key": 1396,
    "Ġsit": 1397,
    "Ġpushed": 1398,
    "Ġfight": 1399,
    "Ġslow": 1400,
    "Ġplan": 1401,
    "Ġclose": 1402,
    "red": 1403,
    "ĠAll": 1404,
    "Ġless": 1405,
    "Ġdone": 1406,
    "pe": 1407,
    "Ġwag": 1408,
    "Ġwall": 1409,
    "Ġowl": 1410,
    "Ġcool": 1411,
    "Ġsees": 1412,
    "Ġmust": 1413,
    "Ġglad": 1414,
    "Ġfruit": 1415,
    "Ġwise": 1416,
    "ield": 1417,
    "Ġtiny": 1418,
    "Ġwonder": 1419,
    "Ġmoment": 1420,
    "Ġtrying": 1421,
    "Ġstuck": 1422,
    "ather": 1423,
    "Ġdream": 1424,
    "In": 1425,
    "Ġthrough": 1426,
    "Ġdin": 1427,
    "ash": 1428,
    "Ġwished": 1429,
    "Ġpen": 1430,
    "Ġfire": 1431,
    "ames": 1432,
    "Ġreach": 1433,
    "Ġthank": 1434,
    "Ġbar": 1435,
    "Ġbeen": 1436,
    "Ġbaby": 1437,
    "Ġwindow": 1438,
    "Ġjoin": 1439,
    "Ġexplore": 1440,
    "ott": 1441,
    "Ġlooks": 1442,
    "Ġdoing": 1443,
    "ĠEveryone": 1444,
    "Ġar": 1445,
    "Ġbuy": 1446,
    "Ġbit": 1447,
    "Ġshouted": 1448,
    "Ġair": 1449,
    "Mia": 1450,
    "Ġhide": 1451,
    "Ġbuild": 1452,
    "ĠMommy": 1453,
    "Ġnest": 1454,
    "Ġswam": 1455,
    "Ġscary": 1456,
    "Ġfall": 1457,
    "Ġcoming": 1458,
    "Ġcloud": 1459,
    "Ġland": 1460,
    "Ġbran": 1461,
    "oney": 1462,
    "Ġwin": 1463,
    "Ġblew": 1464,
    "Ġseen": 1465,
    "andy": 1466,
    "Ġperf": 1467,
    "ask": 1468,
    "Ġdirty": 1469,
    "Ġchild": 1470,
    "Ġheld": 1471,
    "Ġbooks": 1472,
    "avy": 1473,
    "ph": 1474,
    "Ġbigger": 1475,
    "Ġreplied": 1476,
    "Ġquick": 1477,
    "Ġleft": 1478,
    "Ġmat": 1479,
    "ely": 1480,
    "Ġunderst": 1481,
    "Ġmight": 1482,
    "Ġtreat": 1483,
    "ndma": 1484,
    "Ġcolorful": 1485,
    "Ġpulled": 1486,
    "Ġgrabbed": 1487,
    "Ġwhy": 1488,
    "Ġturns": 1489,
    "Okay": 1490,
    "Ġdro": 1491,
    "Ġbutterf": 1492,
    "ized": 1493,
    "Ġremembered": 1494,
    "icy": 1495,
    "Ġfill": 1496,
    "Ġname": 1497,
    "ucky": 1498,
    "Ġcup": 1499,
    "Ġchair": 1500,
    "Ġcast": 1501,
    "Ġbroke": 1502,
    "orm": 1503,
    "Ġsometimes": 1504,
    "Ġcount": 1505,
    "aisy": 1506,
    "Ġthree": 1507,
    "Ġsure": 1508,
    "oup": 1509,
    "ation": 1510,
    "Ġspl": 1511,
    "Ġhopped": 1512,
    "Ġpink": 1513,
    "ton": 1514,
    "Ġstayed": 1515,
    "Ġsnow": 1516,
    "Ġjob": 1517,
    "Ġclapped": 1518,
    "up": 1519,
    "Oh": 1520,
    "Ġgames": 1521,
    "der": 1522,
    "Ġbott": 1523,
    "Ġgif": 1524,
    "ee": 1525,
    "Ġwaited": 1526,
    "'re": 1527,
    "ĠThere": 1528,
    "Ġplant": 1529,
    "Ġnoticed": 1530,
    "Ġgrow": 1531,
    "Ġlesson": 1532,
    "Ġballoon": 1533,
    "ix": 1534,
    "Ġanything": 1535,
    "Ġpictures": 1536,
    "Ġwoods": 1537,
    "outh": 1538,
    "Ġmouth": 1539,
    "Ġpaint": 1540,
    "ĠAfter": 1541,
    "uddy": 1542,
    "Ġwaved": 1543,
    "Ġset": 1544,
    "ower": 1545,
    "Ġenjoyed": 1546,
    "room": 1547,
    "Ġspot": 1548,
    "Ġalone": 1549,
    "Ġpot": 1550,
    "Ġcont": 1551,
    "This": 1552,
    "Ġsea": 1553,
    "Ġbrother": 1554,
    "ds": 1555,
    "Ġlikes": 1556,
    "art": 1557,
    "oun": 1558,
    "amp": 1559,
    "Her": 1560,
    "Ġtight": 1561,
    "\".": 1562,
    "Ġyear": 1563,
    "Ġthrew": 1564,
    "Ġheavy": 1565,
    "Ġwhite": 1566,
    "Ġfollowed": 1567,
    "Ġquickly": 1568,
    "Ġgent": 1569,
    "Ġbutterfly": 1570,
    "ins": 1571,
    "Spot": 1572,
    "Ġmiss": 1573,
    "Ġcookies": 1574,
    "ape": 1575,
    "Ġju": 1576,
    "Ġdeep": 1577,
    "asure": 1578,
    "olly": 1579,
    "Ġeverywhere": 1580,
    "de": 1581,
    "Lucy": 1582,
    "ze": 1583,
    "Ġbee": 1584,
    "Ġpat": 1585,
    "oe": 1586,
    "ĠJohn": 1587,
    "ries": 1588,
    "aught": 1589,
    "Ġmar": 1590,
    "Bob": 1591,
    "Ġworld": 1592,
    "ister": 1593,
    "cle": 1594,
    "Ġclot": 1595,
    "Ġwrong": 1596,
    "Ġclothes": 1597,
    "Ġcastle": 1598,
    "Ġcre": 1599,
    "Ġwear": 1600,
    "less": 1601,
    "lc": 1602,
    "Ġpu": 1603,
    "ross": 1604,
    "Ġmum": 1605,
    "Ġbutton": 1606,
    "Ġleaf": 1607,
    "iet": 1608,
    "Ġnap": 1609,
    "ĠBuddy": 1610,
    "Ġve": 1611,
    "ner": 1612,
    "Ġquiet": 1613,
    "Ġmix": 1614,
    "Ġkey": 1615,
    "arent": 1616,
    "Ġmakes": 1617,
    "ang": 1618,
    "Ġbrought": 1619,
    "Ġround": 1620,
    "row": 1621,
    "Ġparent": 1622,
    "ully": 1623,
    "ued": 1624,
    "rot": 1625,
    "Ġwants": 1626,
    "Ġwell": 1627,
    "Ġhimself": 1628,
    "ĠDaisy": 1629,
    "os": 1630,
    "Ġwon": 1631,
    "Ġride": 1632,
    "Ġdelic": 1633,
    "Ġfield": 1634,
    "man": 1635,
    "Ġdanced": 1636,
    "Ġbreak": 1637,
    "Ġarm": 1638,
    "Ġtower": 1639,
    "ĠLila": 1640,
    "Do": 1641,
    "Ġsign": 1642,
    "ĠWhat": 1643,
    "fully": 1644,
    "Ġsnack": 1645,
    "Ġhit": 1646,
    "thy": 1647,
    "Ġdrag": 1648,
    "Ġfaster": 1649,
    "Ġking": 1650,
    "Ġgift": 1651,
    "Ġtalked": 1652,
    "Ġforgot": 1653,
    "Ġwish": 1654,
    "Ġleg": 1655,
    "Ġbeach": 1656,
    "gg": 1657,
    "Ġsister": 1658,
    "Ġriver": 1659,
    "Ġmus": 1660,
    "cess": 1661,
    "ence": 1662,
    "Ġfinished": 1663,
    "Ġbranch": 1664,
    "Ġdry": 1665,
    "Ġcomp": 1666,
    "leph": 1667,
    "ves": 1668,
    "itten": 1669,
    "cy": 1670,
    "Ġsharing": 1671,
    "From": 1672,
    "Ġpol": 1673,
    "Ġbike": 1674,
    "ĠInside": 1675,
    "Ġdinner": 1676,
    "Ġdragon": 1677,
    "Ġfur": 1678,
    "ards": 1679,
    "Ġra": 1680,
    "Ġdanger": 1681,
    "Ġrel": 1682,
    "Ġem": 1683,
    "Ġreally": 1684,
    "Ġbor": 1685,
    "ipp": 1686,
    "Ġvis": 1687,
    "Ġunderstand": 1688,
    "Ġshin": 1689,
    "ance": 1690,
    "ĠTo": 1691,
    "Ġblack": 1692,
    "John": 1693,
    "ren": 1694,
    "Ġbottle": 1695,
    "Ġmonkey": 1696,
    "Ġfox": 1697,
    "His": 1698,
    "eddy": 1699,
    "Ġmonster": 1700,
    "Ġpig": 1701,
    "Ġsmart": 1702,
    "ĠAt": 1703,
    "Ġpoin": 1704,
    "Ġworried": 1705,
    "Ġrocks": 1706,
    "Ġcontin": 1707,
    "Amy": 1708,
    "Ġgu": 1709,
    "Ġcarefully": 1710,
    "Ġbowl": 1711,
    "Ġsomeone": 1712,
    "imi": 1713,
    "ctor": 1714,
    "Ġfairy": 1715,
    "Ġtoday": 1716,
    "Ġatt": 1717,
    "ast": 1718,
    "Ġfilled": 1719,
    "Ġside": 1720,
    "Ġpudd": 1721,
    "Ġeating": 1722,
    "ush": 1723,
    "Ġwelc": 1724,
    "Ġel": 1725,
    "ses": 1726,
    "vel": 1727,
    "Ġgi": 1728,
    "Ġcow": 1729,
    "Ġboun": 1730,
    "itting": 1731,
    "Ġsnake": 1732,
    "Ġbrown": 1733,
    "ead": 1734,
    "Ġwhe": 1735,
    "Ġpromised": 1736,
    "Ġfan": 1737,
    "While": 1738,
    "Ġsilly": 1739,
    "Ġpet": 1740,
    "Ġhappen": 1741,
    "Just": 1742,
    "Ġeverything": 1743,
    "Ġyes": 1744,
    "ts": 1745,
    "Ġres": 1746,
    "Ġparents": 1747,
    "ĠSoon": 1748,
    "ĠMaybe": 1749,
    "Ġsoup": 1750,
    "Ġvisit": 1751,
    "Ġmusic": 1752,
    "Ġmud": 1753,
    "Ġletter": 1754,
    "ated": 1755,
    "Ġfree": 1756,
    "Ġelse": 1757,
    "Ġpieces": 1758,
    "Ġroad": 1759,
    "Ġchildren": 1760,
    "stead": 1761,
    "Ġbite": 1762,
    "Ġshop": 1763,
    "Ġsang": 1764,
    "Ġcontinued": 1765,
    "Fin": 1766,
    "Ġtalking": 1767,
    "Ġperfect": 1768,
    "Ġkite": 1769,
    "zz": 1770,
    "Ġflying": 1771,
    "Ġegg": 1772,
    "Ġsmiles": 1773,
    "Ġthrow": 1774,
    "Ġrealized": 1775,
    "ĠBilly": 1776,
    "Ġmail": 1777,
    "Ġear": 1778,
    "ĠSarah": 1779,
    "ord": 1780,
    "Ġwords": 1781,
    "ĠEm": 1782,
    ".âĢĿ": 1783,
    "Ġamazing": 1784,
    "cket": 1785,
    "Ġlaughing": 1786,
    "Ġjar": 1787,
    "Ġwagged": 1788,
    "Ġorange": 1789,
    "Ġque": 1790,
    "Ġsec": 1791,
    "Ġmoved": 1792,
    "Ġsitting": 1793,
    "Ġenough": 1794,
    "Ġclosed": 1795,
    "ĠZ": 1796,
    "Ġpass": 1797,
    "Ġwithout": 1798,
    "Ġshining": 1799,
    "Ġmother": 1800,
    "gly": 1801,
    "Ġsmo": 1802,
    "Ġstand": 1803,
    "Ġcrab": 1804,
    "Ġbuck": 1805,
    "Ġsail": 1806,
    "Ġrope": 1807,
    "Ġdangerous": 1808,
    "fort": 1809,
    "Ġstrange": 1810,
    "Ġsecret": 1811,
    "Ġbarked": 1812,
    "Ġbath": 1813,
    "Ġstu": 1814,
    "Ġtasty": 1815,
    "Ġdrink": 1816,
    "ĠMimi": 1817,
    "unch": 1818,
    "Ġwelcome": 1819,
    "fish": 1820,
    "ella": 1821,
    "Ġpaw": 1822,
    "used": 1823,
    "iver": 1824,
    "board": 1825,
    "Ġcrying": 1826,
    "Ġwhist": 1827,
    "Ġpast": 1828,
    "Ġheal": 1829,
    "Ġce": 1830,
    "ises": 1831,
    "Ġlon": 1832,
    "Ġcandy": 1833,
    "Ġliving": 1834,
    "ĠJoe": 1835,
    "Ġ-": 1836,
    "Ġhigher": 1837,
    "ches": 1838,
    "Maybe": 1839,
    "Ġlonely": 1840,
    "Ġpre": 1841,
    "Ġowner": 1842,
    "ĠCh": 1843,
    "Ġshoes": 1844,
    "Ġbelie": 1845,
    "Ġsack": 1846,
    "Ġfarmer": 1847,
    "Please": 1848,
    "Ġmorning": 1849,
    "chool": 1850,
    "ato": 1851,
    "arm": 1852,
    "Ġtom": 1853,
    "ĠJen": 1854,
    "gy": 1855,
    "Ġswings": 1856,
    "Ġdelicious": 1857,
    "Ġpurp": 1858,
    "ract": 1859,
    "Ġschool": 1860,
    "llie": 1861,
    "isk": 1862,
    "Ġscream": 1863,
    "Ġteac": 1864,
    "ible": 1865,
    "Ġpush": 1866,
    "Ġfinally": 1867,
    "!âĢĿ": 1868,
    "Ġstone": 1869,
    "Ġrolled": 1870,
    "Ġph": 1871,
    "Ġgrandma": 1872,
    "lephant": 1873,
    "lder": 1874,
    "Mommy": 1875,
    "Ġpuddle": 1876,
    "ich": 1877,
    "Ġstre": 1878,
    "Ġdolls": 1879,
    "me": 1880,
    "ĠBl": 1881,
    "Ġgetting": 1882,
    "Ġblank": 1883,
    "ire": 1884,
    "ama": 1885,
    "Ġpurple": 1886,
    "Ġlake": 1887,
    "Ġasks": 1888,
    "lla": 1889,
    "asket": 1890,
    "Ġyears": 1891,
    "Ġtrou": 1892,
    "Ġshell": 1893,
    "Ġmad": 1894,
    "ased": 1895,
    "Ġcaught": 1896,
    "Ġblanket": 1897,
    "Ġcorn": 1898,
    "set": 1899,
    "Ġtreasure": 1900,
    "Ġwore": 1901,
    "Ġruns": 1902,
    "Ġmoney": 1903,
    "ub": 1904,
    "Ġbasket": 1905,
    "Ġhoped": 1906,
    "ons": 1907,
    "Ġpile": 1908,
    "iskers": 1909,
    "Ġsame": 1910,
    "eo": 1911,
    "Ġsinging": 1912,
    "app": 1913,
    "Ġherself": 1914,
    "ey": 1915,
    "Ġwings": 1916,
    "Ġpers": 1917,
    "Ġapples": 1918,
    "cks": 1919,
    "Ġcute": 1920,
    "Ġben": 1921,
    "br": 1922,
    "Ġmine": 1923,
    "Ġje": 1924,
    "Ġbat": 1925,
    "ĠTommy": 1926,
    "igh": 1927,
    "Ġplane": 1928,
    "Ġgentle": 1929,
    "Ġcarrot": 1930,
    "Ġcray": 1931,
    "ĊĠ": 1932,
    "Ġteacher": 1933,
    "Ġelephant": 1934,
    "Ġcoat": 1935,
    "Ġsear": 1936,
    "Ġpill": 1937,
    "Ġdropped": 1938,
    "Ġballs": 1939,
    "Ġstart": 1940,
    "Ġfit": 1941,
    "Ġteddy": 1942,
    "Ġdays": 1943,
    "thday": 1944,
    "irthday": 1945,
    "Ġcour": 1946,
    "Ġdoctor": 1947,
    "Finally": 1948,
    "ined": 1949,
    "Ġwar": 1950,
    "Ġcourse": 1951,
    "Ġforever": 1952,
    "aughty": 1953,
    "Ġwoke": 1954,
    "Ġjoy": 1955,
    "Ġnaughty": 1956,
    "Ġhiding": 1957,
    "Ġseed": 1958,
    "Ġcard": 1959,
    "Ġpromise": 1960,
    "Ġmin": 1961,
    "Ġbring": 1962,
    "ilk": 1963,
    "ĠWhiskers": 1964,
    "Ġmost": 1965,
    "Ġarri": 1966,
    "Ġteach": 1967,
    "Ġspin": 1968,
    "Ġcookie": 1969,
    "Ġcr": 1970,
    "Ġband": 1971,
    "umpy": 1972,
    "ol": 1973,
    "ator": 1974,
    "Ġshap": 1975,
    "Ġfence": 1976,
    "Ġchee": 1977,
    "Ġrob": 1978,
    "Ġbush": 1979,
    "ĠGra": 1980,
    "ĠBlue": 1981,
    "Ġthinks": 1982,
    "Ġshr": 1983,
    "Ġmilk": 1984,
    "Ġlunch": 1985,
    "Ġugly": 1986,
    "Ġeas": 1987,
    "Ġbirthday": 1988,
    "arp": 1989,
    "Ġnose": 1990,
    "Ġtouc": 1991,
    "ose": 1992,
    "Ġjuice": 1993,
    "ĠThank": 1994,
    "Ġvill": 1995,
    "Ġob": 1996,
    "Ġgrew": 1997,
    "Ġbow": 1998,
    "Ġpop": 1999,
    "Ġbelong": 2000,
    "sw": 2001,
    "Ġshapes": 2002,
    "Ġansw": 2003,
    "fused": 2004,
    "itch": 2005,
    "ipped": 2006,
    "Ġsharp": 2007,
    "ĠFred": 2008,
    "ass": 2009,
    "ail": 2010,
    "Ġcreat": 2011,
    "Ġyoung": 2012,
    "Ġheart": 2013,
    "umber": 2014,
    "sy": 2015,
    "irt": 2016,
    "Ġbench": 2017,
    "ier": 2018,
    "Ġstreet": 2019,
    "ĠBella": 2020,
    "bow": 2021,
    "'ll": 2022,
    "ĠLeo": 2023,
    "Ġseem": 2024,
    "Jack": 2025,
    "Ġbone": 2026,
    "erry": 2027,
    "Ġwra": 2028,
    "Ġmark": 2029,
    "Ġlate": 2030,
    "Ġable": 2031,
    "sc": 2032,
    "eter": 2033,
    "ball": 2034,
    "ale": 2035,
    "Ġbelieve": 2036,
    "Ġrocket": 2037,
    "Ġzoom": 2038,
    "Ġbucket": 2039,
    "Ġcoin": 2040,
    "Ġbread": 2041,
    "Ġrobot": 2042,
    "Ġpocket": 2043,
    "Ġpower": 2044,
    "Ġmagical": 2045,
    "Ġdirt": 2046,
    "Ġtouched": 2047,
    "Ġspoon": 2048,
    "Ġshy": 2049,
    "Ġkiss": 2050,
    "Ġinc": 2051,
    "Ġslowly": 2052,
    "Ġshook": 2053,
    "Ġbusy": 2054,
    "Ġtwins": 2055,
    "Ġkitten": 2056,
    "Ġprob": 2057,
    "Ġcheered": 2058,
    "Ġarrived": 2059,
    "Ġshake": 2060,
    "Ġfeels": 2061,
    "Ġlem": 2062,
    "Ġcraw": 2063,
    "Ġseat": 2064,
    "Ġneck": 2065,
    "Ġcarry": 2066,
    "Ġtrip": 2067,
    "Ġstorm": 2068,
    "ling": 2069,
    "Ġamazed": 2070,
    "ung": 2071,
    "Ġspo": 2072,
    "Ġfew": 2073,
    "eared": 2074,
    "Ġvillage": 2075,
    "igg": 2076,
    "OK": 2077,
    "Ġbell": 2078,
    "lem": 2079,
    "idge": 2080,
    "Ġtaking": 2081,
    "Ġstories": 2082,
    "Ġpatient": 2083,
    "Ġgrumpy": 2084,
    "Ġfixed": 2085,
    "Ġcoll": 2086,
    "oose": 2087,
    "Ġproblem": 2088,
    "Ġnut": 2089,
    "urtle": 2090,
    "ost": 2091,
    "Ġwheel": 2092,
    "Good": 2093,
    "Ġsounds": 2094,
    "Ġwonderful": 2095,
    "Ġlive": 2096,
    "Ġgray": 2097,
    "Ġdist": 2098,
    "irp": 2099,
    "Ġrainbow": 2100,
    "una": 2101,
    "Ġwave": 2102,
    "Ġtowards": 2103,
    "Ġsug": 2104,
    "Ġhuge": 2105,
    "Ġspark": 2106,
    "Ġrude": 2107,
    "Ġdriver": 2108,
    "Ġhor": 2109,
    "Ġcover": 2110,
    "ors": 2111,
    "fortable": 2112,
    "Ġwhistle": 2113,
    "Ġsongs": 2114,
    "Ġcart": 2115,
    "ĠMark": 2116,
    "Ġcir": 2117,
    "emy": 2118,
    "Ġwide": 2119,
    "ĠMomo": 2120,
    "Ġsal": 2121,
    "epend": 2122,
    "Lila": 2123,
    "Ġrec": 2124,
    "Ġdes": 2125,
    "unt": 2126,
    "ens": 2127,
    "Ġstring": 2128,
    "Ġdisapp": 2129,
    "kin": 2130,
    "elly": 2131,
    "bble": 2132,
    "Ġtreats": 2133,
    "Ġsuc": 2134,
    "pping": 2135,
    "Ġpath": 2136,
    "Ġmeet": 2137,
    "iling": 2138,
    "Ġupset": 2139,
    "Ġholding": 2140,
    "Ġcheese": 2141,
    "alm": 2142,
    "Ġmoon": 2143,
    "oph": 2144,
    "Be": 2145,
    "Ġturtle": 2146,
    "Ġworm": 2147,
    "Ġwild": 2148,
    "Of": 2149,
    "ourn": 2150,
    "Sure": 2151,
    "Ġlay": 2152,
    "Ġhugs": 2153,
    "ĠN": 2154,
    "Ġgrab": 2155,
    "Ġfighting": 2156,
    "Ġlife": 2157,
    "Ġgiant": 2158,
    "Ġdi": 2159,
    "Ġpuppy": 2160,
    "Ġpeace": 2161,
    "Ġjourn": 2162,
    "Ġbugs": 2163,
    "umb": 2164,
    "ring": 2165,
    "Ġsmooth": 2166,
    "Ġjew": 2167,
    "adow": 2168,
    "Ġnote": 2169,
    "Ġjoke": 2170,
    "Ġban": 2171,
    "Ġnoises": 2172,
    "Ġjewel": 2173,
    "Ġcloth": 2174,
    "ĠJust": 2175,
    "ĠEmma": 2176,
    "Ġsmelly": 2177,
    "Ġsour": 2178,
    "Ġmist": 2179,
    "Ġhoney": 2180,
    "ountain": 2181,
    "Ġlucky": 2182,
    "Ġinv": 2183,
    "Ġser": 2184,
    "Ġlanded": 2185,
    "Ġcou": 2186,
    "ular": 2187,
    "izzy": 2188,
    "onest": 2189,
    "ĠOn": 2190,
    "pper": 2191,
    "Ġnet": 2192,
    "St": 2193,
    "Ġthin": 2194,
    "Ġrad": 2195,
    "Ġcave": 2196,
    "aur": 2197,
    "Ġprincess": 2198,
    "Ġhonest": 2199,
    "Ġbeak": 2200,
    "ĠAnn": 2201,
    "not": 2202,
    "ife": 2203,
    "Ġjelly": 2204,
    "Ġdrive": 2205,
    "Ġboss": 2206,
    "isa": 2207,
    "Ġpart": 2208,
    "Ġchew": 2209,
    "Ġbanan": 2210,
    "ery": 2211,
    "Ġseek": 2212,
    "Ġcannot": 2213,
    "Ġmissed": 2214,
    "Ġact": 2215,
    "ĠMolly": 2216,
    "Ġstars": 2217,
    "Ġmed": 2218,
    "Ġba": 2219,
    "ove": 2220,
    "Ġdogs": 2221,
    "read": 2222,
    "Ġsuddenly": 2223,
    "Ġsick": 2224,
    "Ġign": 2225,
    "sp": 2226,
    "Ġoven": 2227,
    "Ġdrove": 2228,
    "lower": 2229,
    "Ġbri": 2230,
    "Ġtea": 2231,
    "Ġstep": 2232,
    "Ġsplas": 2233,
    "ĠFinally": 2234,
    "Ġshelf": 2235,
    "iger": 2236,
    "Ġexp": 2237,
    "Ġsnowman": 2238,
    "Ġwasn": 2239,
    "Ġinstead": 2240,
    "Hey": 2241,
    "Ġtaste": 2242,
    "Ġfoot": 2243,
    "Ġfle": 2244,
    "ĠDog": 2245,
    "Ġmaybe": 2246,
    "Ġducks": 2247,
    "ope": 2248,
    "ert": 2249,
    "Later": 2250,
    "Ġsel": 2251,
    "Ġacross": 2252,
    "ateful": 2253,
    "Ġsandw": 2254,
    "Ġhelpful": 2255,
    "Ġfancy": 2256,
    "Ġadventures": 2257,
    "est": 2258,
    "Ġbought": 2259,
    "Ġwash": 2260,
    "Ġorgan": 2261,
    "ian": 2262,
    "ere": 2263,
    "Ġcross": 2264,
    "To": 2265,
    "Ġline": 2266,
    "Ġglow": 2267,
    "ĠRemy": 2268,
    "Ġgrateful": 2269,
    "Ġcomes": 2270,
    "Ġslid": 2271,
    "Ġforget": 2272,
    "Ġconfused": 2273,
    "Ġash": 2274,
    "let": 2275,
    "idy": 2276,
    "Ġspe": 2277,
    "Ġpuzz": 2278,
    "Ġpillow": 2279,
    "Ġhealthy": 2280,
    "Ġchange": 2281,
    "Ġpract": 2282,
    "Ġdish": 2283,
    "Ġzoo": 2284,
    "ĠOllie": 2285,
    "oomy": 2286,
    "oppy": 2287,
    "Ġval": 2288,
    "Ġstepped": 2289,
    "erest": 2290,
    "Ġlast": 2291,
    "Ġlad": 2292,
    "Ġinterest": 2293,
    "Ġcap": 2294,
    "Ġselfish": 2295,
    "Ġelder": 2296,
    "Ġcho": 2297,
    "ity": 2298,
    "Ġworking": 2299,
    "Ġwhole": 2300,
    "Ġelderly": 2301,
    "Ġeasy": 2302,
    "ward": 2303,
    "Ġwatching": 2304,
    "Ġsticks": 2305,
    "Ġhope": 2306,
    "Ġanyone": 2307,
    "col": 2308,
    "Ġmessy": 2309,
    "Ġcalm": 2310,
    "amed": 2311,
    "Ġtakes": 2312,
    "Ġsave": 2313,
    "Ġpri": 2314,
    "Ġforgive": 2315,
    "Ġdaddy": 2316,
    "Ġchased": 2317,
    "ize": 2318,
    "irpy": 2319,
    "Ġweak": 2320,
    "Ġteam": 2321,
    "Ġmyster": 2322,
    "Ġav": 2323,
    "Ġwrite": 2324,
    "Ġshirt": 2325,
    "Ġladder": 2326,
    "oc": 2327,
    "Ġwolf": 2328,
    "Ġtape": 2329,
    "to": 2330,
    "pect": 2331,
    "Ġsplash": 2332,
    "Ġlemon": 2333,
    "Ġlegs": 2334,
    "Ġclever": 2335,
    "ĠSp": 2336,
    "Ġphone": 2337,
    "Ġmind": 2338,
    "Ġhorse": 2339,
    "Ġfeather": 2340,
    "Ġplants": 2341,
    "Ġperson": 2342,
    "Ġlonger": 2343,
    "ider": 2344,
    "Ġtidy": 2345,
    "Ġstret": 2346,
    "Ġprot": 2347,
    "Ġpour": 2348,
    "Ġjog": 2349,
    "ork": 2350,
    "ever": 2351,
    "Ġemp": 2352,
    "izz": 2353,
    "Soon": 2354,
    "Ġpan": 2355,
    "Ġlater": 2356,
    "Ġempty": 2357,
    "Ġbark": 2358,
    "Ġalong": 2359,
    "ĠCat": 2360,
    "Sally": 2361,
    "Ġseemed": 2362,
    "Ġfaces": 2363,
    "Ġboot": 2364,
    "ĠBu": 2365,
    "Ġpretended": 2366,
    "Ġlock": 2367,
    "Ġcozy": 2368,
    "bbles": 2369,
    "Ġsleepy": 2370,
    "Ġlift": 2371,
    "ions": 2372,
    "Ġhum": 2373,
    "iting": 2374,
    "Ġwaiting": 2375,
    "Ġstir": 2376,
    "Ġsaved": 2377,
    "Ġsu": 2378,
    "Ġfinish": 2379,
    "llo": 2380,
    "Ġswimm": 2381,
    "Ġmach": 2382,
    "pill": 2383,
    "pillar": 2384,
    "Come": 2385,
    "Ġret": 2386,
    "ually": 2387,
    "ained": 2388,
    "?âĢĿ": 2389,
    "Ġspicy": 2390,
    "Ġcheer": 2391,
    "Ġchick": 2392,
    "Ġbounce": 2393,
    "ĠCome": 2394,
    "Ġscreamed": 2395,
    "Ġreturn": 2396,
    "Ġring": 2397,
    "Ġgoat": 2398,
    "ĠLisa": 2399,
    "Ġent": 2400,
    "ult": 2401,
    "Ġpool": 2402,
    "Ġfake": 2403,
    "ĠChirpy": 2404,
    "den": 2405,
    "Ġjumping": 2406,
    "ĠDaddy": 2407,
    "Ġsupp": 2408,
    "Ġsuch": 2409,
    "Ġinteresting": 2410,
    "Ġwondered": 2411,
    "Ġtie": 2412,
    "Ġclouds": 2413,
    "Ġprint": 2414,
    "Ġpin": 2415,
    "Ġmistake": 2416,
    "Ġfruits": 2417,
    "ĠDucky": 2418,
    "unk": 2419,
    "Ġdrank": 2420,
    "ocked": 2421,
    "Ġspray": 2422,
    "erpillar": 2423,
    "Ġthough": 2424,
    "Ġplate": 2425,
    "Ġeag": 2426,
    "Ġcaterpillar": 2427,
    "Ġstra": 2428,
    "Ġbossy": 2429,
    "ĠTogether": 2430,
    "issors": 2431,
    "dge": 2432,
    "box": 2433,
    "Ġonto": 2434,
    "Ġgather": 2435,
    "eth": 2436,
    "Ġkick": 2437,
    "Ġdrew": 2438,
    "Ġbuilding": 2439,
    "ĠBenny": 2440,
    "Ġswimming": 2441,
    "Ġscissors": 2442,
    "Ġmachine": 2443,
    "lebr": 2444,
    "Ġrich": 2445,
    "ĠWith": 2446,
    "ĠTV": 2447,
    "ormal": 2448,
    "Ġsheep": 2449,
    "Ġnumber": 2450,
    "Ġhidden": 2451,
    "Ġgives": 2452,
    "Ġcelebr": 2453,
    "ĠSt": 2454,
    "ĠElla": 2455,
    "ont": 2456,
    "Ġnormal": 2457,
    "oof": 2458,
    "ek": 2459,
    "Ġwing": 2460,
    "Ġbrush": 2461,
    "Kitty": 2462,
    "Ġlovely": 2463,
    "Ġfurry": 2464,
    "Ġexplor": 2465,
    "Ġcrayons": 2466,
    "Ġcleaned": 2467,
    "Ġarms": 2468,
    "Ġtrouble": 2469,
    "Ġglue": 2470,
    "Ġfront": 2471,
    "ment": 2472,
    "izza": 2473,
    "aced": 2474,
    "Ġspider": 2475,
    "Ġpenc": 2476,
    "Ġpack": 2477,
    "Ġfing": 2478,
    "Ġcher": 2479,
    "ĠMy": 2480,
    "Ġsugar": 2481,
    "Ġpointed": 2482,
    "Ġpencil": 2483,
    "Ġmatch": 2484,
    "Ġlar": 2485,
    "Ġcage": 2486,
    "ĠDoggy": 2487,
    "elp": 2488,
    "Ġmel": 2489,
    "Ġappeared": 2490,
    "ĠTheir": 2491,
    "ĠBunny": 2492,
    "urse": 2493,
    "Ġputs": 2494,
    "Ġsmelled": 2495,
    "Ġprince": 2496,
    "osaur": 2497,
    "oop": 2498,
    "ned": 2499,
    "Ġsur": 2500,
    "Ġpray": 2501,
    "Ġgently": 2502,
    "Ġgate": 2503,
    "ĠLuna": 2504,
    "ĠGrandma": 2505,
    "yard": 2506,
    "Ġsearch": 2507,
    "Ġmatter": 2508,
    "Ġdinosaur": 2509,
    "Ġbackyard": 2510,
    "And": 2511,
    "Ġfear": 2512,
    "Ġfil": 2513,
    "Ġdrum": 2514,
    "pa": 2515,
    "Ġship": 2516,
    "Ġclass": 2517,
    "Ġtowel": 2518,
    "Ġqueen": 2519,
    "Ġgun": 2520,
    "Ġcircle": 2521,
    "Ġvan": 2522,
    "Ġsmiling": 2523,
    "Ġcouch": 2524,
    "ĠGo": 2525,
    "aughter": 2526,
    "Ġtear": 2527,
    "Ġnearby": 2528,
    "Ġimag": 2529,
    "Ġicy": 2530,
    "Ġyelled": 2531,
    "Ġashamed": 2532,
    "Ġpowerful": 2533,
    "gest": 2534,
    "Ġwand": 2535,
    "Ġquest": 2536,
    "Ġplaces": 2537,
    "Ġflag": 2538,
    "Ġcri": 2539,
    "ĠSomet": 2540,
    "ĠJerry": 2541,
    "Help": 2542,
    "Ġlaw": 2543,
    "lev": 2544,
    "Ġwom": 2545,
    "Ġlamp": 2546,
    "Ġaf": 2547,
    "ĠWhy": 2548,
    "orrow": 2549,
    "icked": 2550,
    "Ġwoman": 2551,
    "Ġpizza": 2552,
    "Ġmir": 2553,
    "Ġlarge": 2554,
    "Ġdaughter": 2555,
    "Ġcarried": 2556,
    "ĠMama": 2557,
    "My": 2558,
    "Ġwrap": 2559,
    "Ġtrust": 2560,
    "Ġjourney": 2561,
    "Ġglass": 2562,
    "Ġap": 2563,
    "ym": 2564,
    "Stop": 2565,
    "Ġtrue": 2566,
    "Ġrub": 2567,
    "Ġneigh": 2568,
    "Ġgas": 2569,
    "ĠJim": 2570,
    "vous": 2571,
    "ror": 2572,
    "ones": 2573,
    "Ġtries": 2574,
    "Ġneighb": 2575,
    "Ġbal": 2576,
    "ique": 2577,
    "Ġunique": 2578,
    "Ġjeep": 2579,
    "Ġignor": 2580,
    "Ġemb": 2581,
    "ĠJill": 2582,
    "isp": 2583,
    "ensive": 2584,
    "Ġwearing": 2585,
    "Ġfright": 2586,
    "Ġexpensive": 2587,
    "Ġtomorrow": 2588,
    "Ġhur": 2589,
    "Ġgoes": 2590,
    "ĠIf": 2591,
    "itter": 2592,
    "Ġloves": 2593,
    "Ġdizzy": 2594,
    "ĠBe": 2595,
    "ced": 2596,
    "Ġweird": 2597,
    "Ġsaf": 2598,
    "Ġdig": 2599,
    "Ġants": 2600,
    "ugg": 2601,
    "raid": 2602,
    "Ġthese": 2603,
    "Ġmirror": 2604,
    "Ġhello": 2605,
    "Ġdancing": 2606,
    "Ġchase": 2607,
    "ĠBobby": 2608,
    "Ġspring": 2609,
    "Ġreg": 2610,
    "Ġafraid": 2611,
    "Ġscar": 2612,
    "Ġnothing": 2613,
    "ĠBr": 2614,
    "rass": 2615,
    "arrass": 2616,
    "Ġpoor": 2617,
    "Ġfrightened": 2618,
    "ĠTiny": 2619,
    "ndpa": 2620,
    "mer": 2621,
    "kn": 2622,
    "Ġwhisp": 2623,
    "Ġtest": 2624,
    "Ġner": 2625,
    "Ġlazy": 2626,
    "Ġembarrass": 2627,
    "Ġeager": 2628,
    "Ġcand": 2629,
    "iff": 2630,
    "Ġprotect": 2631,
    "aw": 2632,
    "Ġtomato": 2633,
    "Ġstood": 2634,
    "Ġdest": 2635,
    "ness": 2636,
    "known": 2637,
    "Ġsuccess": 2638,
    "Ġnervous": 2639,
    "bby": 2640,
    "Ġsplashed": 2641,
    "Ġpuzzle": 2642,
    "Ġbridge": 2643,
    "Ġwis": 2644,
    "Ġwip": 2645,
    "Ġunknown": 2646,
    "Ġpay": 2647,
    "Ġclay": 2648,
    "Ġbake": 2649,
    "Ġincred": 2650,
    "Ġimpress": 2651,
    "Ġgold": 2652,
    "Ġgigg": 2653,
    "Ġgen": 2654,
    "Ġdecor": 2655,
    "Ġcreative": 2656,
    "ventually": 2657,
    "ina": 2658,
    "Ġfeet": 2659,
    "era": 2660,
    "Ġincredible": 2661,
    "ĠRex": 2662,
    "Ġtent": 2663,
    "Ġsol": 2664,
    "Ġsock": 2665,
    "Ġsandwich": 2666,
    "Ġlead": 2667,
    "Ġteeth": 2668,
    "Ġswan": 2669,
    "any": 2670,
    "Ġuseful": 2671,
    "Ġclock": 2672,
    "ĠMary": 2673,
    "ĠHow": 2674,
    "ute": 2675,
    "ual": 2676,
    "Ġsteak": 2677,
    "Ġrespect": 2678,
    "Ġboring": 2679,
    "ĠBird": 2680,
    "ĠBear": 2681,
    "berry": 2682,
    "Ġstraw": 2683,
    "Ġsquare": 2684,
    "Ġsoap": 2685,
    "Ġdisco": 2686,
    "lves": 2687,
    "Ġpres": 2688,
    "Ġmixed": 2689,
    "Ġfool": 2690,
    "Ġcloset": 2691,
    "owed": 2692,
    "Ġpotato": 2693,
    "Ġpeaceful": 2694,
    "Ġpump": 2695,
    "Ġmask": 2696,
    "Ġknocked": 2697,
    "cream": 2698,
    "airs": 2699,
    "Ġwhale": 2700,
    "Ġsword": 2701,
    "Ġmysterious": 2702,
    "Ġfamous": 2703,
    "Ġburn": 2704,
    "upid": 2705,
    "Tommy": 2706,
    "Ġhar": 2707,
    "Ġgener": 2708,
    "Ġbean": 2709,
    "ĠAndy": 2710,
    "we": 2711,
    "rated": 2712,
    "Ġyog": 2713,
    "Ġsold": 2714,
    "Ġshark": 2715,
    "Ġanswer": 2716,
    "Ġ3": 2717,
    "Ġsco": 2718,
    "cient": 2719,
    "bled": 2720,
    "arl": 2721,
    "Ġwouldn": 2722,
    "Ġrug": 2723,
    "Ġpolite": 2724,
    "Ġkicked": 2725,
    "Ġfeed": 2726,
    "ĠPlease": 2727,
    "erri": 2728,
    "com": 2729,
    "Ġsnacks": 2730,
    "Ġmeasure": 2731,
    "Ġjam": 2732,
    "Ġdisg": 2733,
    "Ġancient": 2734,
    "Ġrelie": 2735,
    "Ġcorner": 2736,
    "Ġblow": 2737,
    "ond": 2738,
    "Ġspace": 2739,
    "Ġnoisy": 2740,
    "Ġesc": 2741,
    "reen": 2742,
    "ote": 2743,
    "imp": 2744,
    "Ġspread": 2745,
    "Ġscarf": 2746,
    "Ġbranches": 2747,
    "ormous": 2748,
    "Ġstupid": 2749,
    "Ġpainted": 2750,
    "Ġchocol": 2751,
    "ĠDon": 2752,
    "rob": 2753,
    "Ġshoe": 2754,
    "Ġrough": 2755,
    "Ġmarch": 2756,
    "Ġeggs": 2757,
    "Ġwagon": 2758,
    "Ġpaws": 2759,
    "uce": 2760,
    "Ġstudy": 2761,
    "Ġmoms": 2762,
    "Ġfrust": 2763,
    "Ġdisgust": 2764,
    "Ġdead": 2765,
    "Ġdug": 2766,
    "Ġcrown": 2767,
    "robe": 2768,
    "Ġterri": 2769,
    "Ġfoolish": 2770,
    "Ġbarn": 2771,
    "ĠSometimes": 2772,
    "enny": 2773,
    "Dad": 2774,
    "Ġsteal": 2775,
    "Ġsell": 2776,
    "Ġrare": 2777,
    "Ġpresent": 2778,
    "Ġmis": 2779,
    "Ġenormous": 2780,
    "getable": 2781,
    "Ġvegetable": 2782,
    "Ġunderstood": 2783,
    "Ġscare": 2784,
    "Ġsalad": 2785,
    "Ġmedic": 2786,
    "Ġdisgusting": 2787,
    "Ġchocolate": 2788,
    "Ġbanana": 2789,
    "Ġbald": 2790,
    "ighed": 2791,
    "edient": 2792,
    "corn": 2793,
    "ado": 2794,
    "Ġstuff": 2795,
    "Ġmedicine": 2796,
    "Ġhero": 2797,
    "Ġgenerous": 2798,
    "Ġclap": 2799,
    "fic": 2800,
    "Ġgroup": 2801,
    "Ġgoose": 2802,
    "Ġdiffic": 2803,
    "Ġbitter": 2804,
    "pes": 2805,
    "Ġthick": 2806,
    "Ġroar": 2807,
    "Ġperform": 2808,
    "Ġmush": 2809,
    "Ġfrustrated": 2810,
    "Ġdifficult": 2811,
    "Ġbreath": 2812,
    "ĠSammy": 2813,
    "ĠInstead": 2814,
    "Ġtick": 2815,
    "Ġsmaller": 2816,
    "Ġshadow": 2817,
    "Ġmelon": 2818,
    "Ġmarket": 2819,
    "Ġcovered": 2820,
    "ĠPe": 2821,
    "uitar": 2822,
    "Ġtasted": 2823,
    "Ġord": 2824,
    "Ġobedient": 2825,
    "Ġguitar": 2826,
    "roy": 2827,
    "port": 2828,
    "orry": 2829,
    "mb": 2830,
    "Ġwake": 2831,
    "alk": 2832,
    "Ġlab": 2833,
    "Ġhang": 2834,
    "Ġhorn": 2835,
    "Ġdestroy": 2836,
    "ĠSome": 2837,
    "inal": 2838,
    "asses": 2839,
    "Ġtoug": 2840,
    "Ġref": 2841,
    "Ġmountain": 2842,
    "Ġmot": 2843,
    "Ġbored": 2844,
    "Ġasleep": 2845,
    "aking": 2846,
    "Timmy": 2847,
    "Ġwhich": 2848,
    "Ġtaught": 2849,
    "Ġstanding": 2850,
    "usual": 2851,
    "land": 2852,
    "Ġrelieved": 2853,
    "Ġharm": 2854,
    "Ġbecome": 2855,
    "ĠBrown": 2856,
    "Ġtough": 2857,
    "Ġterrible": 2858,
    "Ġsuit": 2859,
    "Ġjoined": 2860,
    "ungle": 2861,
    "atter": 2862,
    "alous": 2863,
    "Ġsquash": 2864,
    "Ġpebble": 2865,
    "Ġmushroom": 2866,
    "Ġmoving": 2867,
    "Ġjealous": 2868,
    "Ġexploring": 2869,
    "iginal": 2870,
    "fted": 2871,
    "als": 2872,
    "Ġyourself": 2873,
    "Ġparrot": 2874,
    "Ġknife": 2875,
    "Ġjungle": 2876,
    "Ġadm": 2877,
    "Together": 2878,
    "Here": 2879,
    "Ġunusual": 2880,
    "Ġtun": 2881,
    "Ġpumpkin": 2882,
    "Ġdiscover": 2883,
    "Ġclear": 2884,
    "Ġasking": 2885,
    "Ġspoiled": 2886,
    "Ġprize": 2887,
    "Ġdull": 2888,
    "ulb": 2889,
    "atch": 2890,
    "Ġsunf": 2891,
    "Ġfat": 2892,
    "Ġchicken": 2893,
    "Ġtiger": 2894,
    "Ġpopcorn": 2895,
    "Ġnuts": 2896,
    "Ġmighty": 2897,
    "Ġthoughtful": 2898,
    "Ġhears": 2899,
    "Ġfine": 2900,
    "Ġcomb": 2901,
    "Ġbulb": 2902,
    "ume": 2903,
    "mp": 2904,
    "ident": 2905,
    "Ġvase": 2906,
    "Ġtwist": 2907,
    "Ġtool": 2908,
    "Ġstri": 2909,
    "Ġseeds": 2910,
    "Ġsque": 2911,
    "Ġhay": 2912,
    "ĠPoppy": 2913,
    "rag": 2914,
    "erce": 2915,
    "Ġoriginal": 2916,
    "Ġfierce": 2917,
    "Ġdrop": 2918,
    "Ġind": 2919,
    "Ġsnee": 2920,
    "Ġending": 2921,
    "Ġdrawing": 2922,
    "Ġcop": 2923,
    "ĠWill": 2924,
    "Ġthankful": 2925,
    "Ġisland": 2926,
    "Ġcarrots": 2927,
    "umsy": 2928,
    "Inside": 2929,
    "Ġspent": 2930,
    "Ġrelax": 2931,
    "Ġmuff": 2932,
    "Ġembarrassed": 2933,
    "Ġcheap": 2934,
    "Ġcro": 2935,
    "selves": 2936,
    "Ġtroubled": 2937,
    "Ġmic": 2938,
    "Ġknowing": 2939,
    "Ġfold": 2940,
    "Ġeng": 2941,
    "Ġclown": 2942,
    "Ġbloom": 2943,
    "Ġaunt": 2944,
    "oto": 2945,
    "comfortable": 2946,
    "Are": 2947,
    "Ġtemp": 2948,
    "Ġsunflower": 2949,
    "Ġrecord": 2950,
    "Ġfrown": 2951,
    "Ġfinding": 2952,
    "Ġbalance": 2953,
    "ĠTr": 2954,
    "Ġuncomfortable": 2955,
    "Ġlose": 2956,
    "Ġhats": 2957,
    "Ġchest": 2958,
    "ĠMany": 2959,
    "Ġ'": 2960,
    "ser": 2961,
    "irsty": 2962,
    "cean": 2963,
    "Ġshoot": 2964,
    "Ġocean": 2965,
    "Ġguess": 2966,
    "Ġexciting": 2967,
    "Ġcone": 2968,
    "Ġadventur": 2969,
    "Ġadd": 2970,
    "ĠSunny": 2971,
    "ĠAl": 2972,
    "xible": 2973,
    "iness": 2974,
    "ilt": 2975,
    "Ġstamp": 2976,
    "Ġlifted": 2977,
    "Ġacorn": 2978,
    "yal": 2979,
    "opard": 2980,
    "dle": 2981,
    "Ġtrick": 2982,
    "Ġseal": 2983,
    "Ġscatter": 2984,
    "Ġclumsy": 2985,
    "ĠJenny": 2986,
    "angle": 2987,
    "ages": 2988,
    "Sorry": 2989,
    "Ġwrote": 2990,
    "Ġpasta": 2991,
    "Ġhairy": 2992,
    "Ġcush": 2993,
    "Ġadventurous": 2994,
    "lace": 2995,
    "Where": 2996,
    "Ġunl": 2997,
    "Ġpicks": 2998,
    "Ġnecklace": 2999,
    "Ġloyal": 3000,
    "Ġcrazy": 3001,
    "Ġcats": 3002,
    "Ġbody": 3003,
    "Ġarrow": 3004,
    "ti": 3005,
    "erries": 3006,
    "Ġtells": 3007,
    "Ġstubb": 3008,
    "Ġhose": 3009,
    "Ġharmless": 3010,
    "Ġexam": 3011,
    "Ġdepend": 3012,
    "Ġcomfortable": 3013,
    "Ġcost": 3014,
    "Ġbrace": 3015,
    "Ġberries": 3016,
    "xious": 3017,
    "urkey": 3018,
    "iant": 3019,
    "amond": 3020,
    "apped": 3021,
    "Ġsearched": 3022,
    "Ġdeliver": 3023,
    "Ġbehave": 3024,
    "tti": 3025,
    "hetti": 3026,
    "aghetti": 3027,
    "Ġorganized": 3028,
    "Ġengine": 3029,
    "Ġdiamond": 3030,
    "Ġanxious": 3031,
    "gu": 3032,
    "ependent": 3033,
    "Molly": 3034,
    "Ġstubborn": 3035,
    "Ġremind": 3036,
    "Ġmov": 3037,
    "Ġfis": 3038,
    "Ġcrayon": 3039,
    "Ġcollect": 3040,
    "light": 3041,
    "Ġthirsty": 3042,
    "Ġturkey": 3043,
    "Ġswe": 3044,
    "Ġstretch": 3045,
    "Ġscr": 3046,
    "Ġpracticed": 3047,
    "Ġplayful": 3048,
    "ĠEmily": 3049,
    "host": 3050,
    "anged": 3051,
    "Ġword": 3052,
    "Ġtied": 3053,
    "Ġpir": 3054,
    "Ġmailbox": 3055,
    "Ġjug": 3056,
    "Ġgloomy": 3057,
    "Ġfrag": 3058,
    "Ġenvel": 3059,
    "Ġenv": 3060,
    "Ġbubbles": 3061,
    "lph": 3062,
    "illa": 3063,
    "dile": 3064,
    "codile": 3065,
    "ants": 3066,
    "Ġyours": 3067,
    "Ġspaghetti": 3068,
    "Ġrep": 3069,
    "Ġraced": 3070,
    "Ġprun": 3071,
    "Ġpolice": 3072,
    "Ġindependent": 3073,
    "Ġflexible": 3074,
    "Ġcrawl": 3075,
    "Ġbathroom": 3076,
    "Ġbarber": 3077,
    "How": 3078,
    "Ġsil": 3079,
    "Ġpro": 3080,
    "Ġescape": 3081,
    "Ġdeer": 3082,
    "Ġcrack": 3083,
    "ĠEven": 3084,
    "Ġpige": 3085,
    "Ġpassed": 3086,
    "Ġmotor": 3087,
    "Ġliz": 3088,
    "Ġghost": 3089,
    "Ġfragile": 3090,
    "ĠU": 3091,
    "aff": 3092,
    "Ġneeds": 3093,
    "Ġjolly": 3094,
    "Ġdependable": 3095,
    "Ġdeaf": 3096,
    "Ġcelebrate": 3097,
    "shine": 3098,
    "io": 3099,
    "Ġwheat": 3100,
    "Ġstove": 3101,
    "Ġroof": 3102,
    "Ġrat": 3103,
    "Ġfig": 3104,
    "Ġdove": 3105,
    "Ġdolph": 3106,
    "Ġchess": 3107,
    "Ġbees": 3108,
    "ĠWhile": 3109,
    "cident": 3110,
    "Ġstat": 3111,
    "Ġraven": 3112,
    "Ġleopard": 3113,
    "Ġflash": 3114,
    "Ġcrocodile": 3115,
    "Ġbrill": 3116,
    "Ġattic": 3117,
    "nic": 3118,
    "Ġyarn": 3119,
    "Ġsung": 3120,
    "Ġshows": 3121,
    "Ġpainting": 3122,
    "Ġpress": 3123,
    "Ġmap": 3124,
    "Ġlog": 3125,
    "Ġexplained": 3126,
    "Ġchanged": 3127,
    "Ġbrilliant": 3128,
    "Ġboys": 3129,
    "ground": 3130,
    "Their": 3131,
    "If": 3132,
    "Ġweal": 3133,
    "Ġthu": 3134,
    "Ġpicnic": 3135,
    "Ġhumble": 3136,
    "Ġcolour": 3137,
    "Ġzip": 3138,
    "Ġtricks": 3139,
    "Ġshiver": 3140,
    "Ġmill": 3141,
    "Ġcrawled": 3142,
    "Ġboard": 3143,
    "Ġer": 3144,
    "nel": 3145,
    "hip": 3146,
    "Ġusing": 3147,
    "Ġtemple": 3148,
    "Ġignorant": 3149,
    "Ġenvelope": 3150,
    "Ġchoose": 3151,
    "weet": 3152,
    "lasses": 3153,
    "iv": 3154,
    "Me": 3155,
    "Mama": 3156,
    "Ġsunglasses": 3157,
    "Ġsend": 3158,
    "Ġruined": 3159,
    "Ġhoop": 3160,
    "Ġfriendship": 3161,
    "Ġframe": 3162,
    "Ġcheerful": 3163,
    "Ġballoons": 3164,
    "Ġavoc": 3165,
    "net": 3166,
    "met": 3167,
    "inary": 3168,
    "Ġraft": 3169,
    "Ġpopular": 3170,
    "Ġpepper": 3171,
    "Ġknee": 3172,
    "Ġfolder": 3173,
    "Ġcounted": 3174,
    "Ġbuilt": 3175,
    "Ġbottom": 3176,
    "Ġbatter": 3177,
    "Ġaccident": 3178,
    "most": 3179,
    "iddle": 3180,
    "Ġwaves": 3181,
    "Ġstones": 3182,
    "Ġspotted": 3183,
    "Ġrose": 3184,
    "Ġpants": 3185,
    "Ġhelmet": 3186,
    "Ġdelicate": 3187,
    "Ġcompet": 3188,
    "work": 3189,
    "ulu": 3190,
    "igator": 3191,
    "Every": 3192,
    "Ġtriangle": 3193,
    "Ġtoast": 3194,
    "Ġsunshine": 3195,
    "Ġspill": 3196,
    "Ġscreen": 3197,
    "Ġkissed": 3198,
    "Ġjack": 3199,
    "Ġenvious": 3200,
    "umpet": 3201,
    "fee": 3202,
    "ffee": 3203,
    "erable": 3204,
    "Ġtrumpet": 3205,
    "Ġstage": 3206,
    "Ġsighed": 3207,
    "Ġmiserable": 3208,
    "Ġmiddle": 3209,
    "Ġlouder": 3210,
    "Ġlizard": 3211,
    "Ġcleaning": 3212,
    "Ġcareless": 3213,
    "ĠYour": 3214,
    "ying": 3215,
    "ither": 3216,
    "Jane": 3217,
    "Ġwander": 3218,
    "Ġvegetables": 3219,
    "Ġtunnel": 3220,
    "Ġstatue": 3221,
    "Ġserious": 3222,
    "Ġscale": 3223,
    "Ġpigeon": 3224,
    "Ġpow": 3225,
    "Ġimpressive": 3226,
    "Ġharsh": 3227,
    "Ġfinger": 3228,
    "Ġalmost": 3229,
    "ĠNo": 3230,
    "seum": 3231,
    "iable": 3232,
    "Ġsailed": 3233,
    "Ġmaze": 3234,
    "Ġhopping": 3235,
    "Ġbracelet": 3236,
    "Ġborrow": 3237,
    "Ġbelt": 3238,
    "Ġalligator": 3239,
    "ĠSh": 3240,
    "Ġslipped": 3241,
    "Ġnosy": 3242,
    "Ġnapkin": 3243,
    "Ġmuseum": 3244,
    "Ġmeant": 3245,
    "Ġguard": 3246,
    "Ġfigure": 3247,
    "Ġearth": 3248,
    "There": 3249,
    "Ġwashed": 3250,
    "Ġtaken": 3251,
    "Ġsaus": 3252,
    "Ġpost": 3253,
    "Ġpenny": 3254,
    "Ġcompl": 3255,
    "Ġbin": 3256,
    "Ġattract": 3257,
    "Mum": 3258,
    "Ġreliable": 3259,
    "Ġrh": 3260,
    "Ġneighbor": 3261,
    "Ġmovie": 3262,
    "Ġjellyfish": 3263,
    "Ġjacket": 3264,
    "Ġhurts": 3265,
    "Ġhappiness": 3266,
    "Ġgar": 3267,
    "Ġcoffee": 3268,
    "Ġcries": 3269,
    "Ġcoo": 3270,
    "ctop": 3271,
    "berries": 3272,
    "Ġordinary": 3273,
    "Ġknight": 3274,
    "Ġgor": 3275,
    "Ġfilthy": 3276,
    "Ġattractive": 3277,
    "aser": 3278,
    "Ġwealthy": 3279,
    "Ġshore": 3280,
    "Ġradio": 3281,
    "Ġones": 3282,
    "Ġgem": 3283,
    "Ġcushion": 3284,
    "Ġcam": 3285,
    "utom": 3286,
    "utomob": 3287,
    "utomobile": 3288,
    "ipper": 3289,
    "Ġwalks": 3290,
    "Ġpeach": 3291,
    "Ġmuffin": 3292,
    "Ġmagnet": 3293,
    "Ġforward": 3294,
    "Ġcab": 3295,
    "Ġboxes": 3296,
    "Ġbelonged": 3297,
    "live": 3298,
    "Ġtag": 3299,
    "Ġshells": 3300,
    "Ġshade": 3301,
    "Ġpoured": 3302,
    "Ġnod": 3303,
    "Ġlocked": 3304,
    "Ġgorilla": 3305,
    "Ġcamera": 3306,
    "zzy": 3307,
    "pack": 3308,
    "llip": 3309,
    "llipop": 3310,
    "Ġwhispered": 3311,
    "Ġregular": 3312,
    "Ġpersist": 3313,
    "Ġlollipop": 3314,
    "Ġfluffy": 3315,
    "Ġdolphin": 3316,
    "Ġcabin": 3317,
    "Ġboats": 3318,
    "Ġanswered": 3319,
    "Ġautomobile": 3320,
    "ony": 3321,
    "ext": 3322,
    "appy": 3323,
    "Ġtimes": 3324,
    "Ġnods": 3325,
    "Ġgiving": 3326,
    "Ġdrawer": 3327,
    "Ġdesk": 3328,
    "dom": 3329,
    "Ġsmoke": 3330,
    "Ġsailor": 3331,
    "Ġmule": 3332,
    "Ġload": 3333,
    "Ġfour": 3334,
    "Ġcreate": 3335,
    "Ġcompetit": 3336,
    "ĠMiss": 3337,
    "uth": 3338,
    "omes": 3339,
    "ctopus": 3340,
    "coa": 3341,
    "cles": 3342,
    "Ġtravel": 3343,
    "Ġsaying": 3344,
    "Ġlotion": 3345,
    "Ġjudge": 3346,
    "Ġgum": 3347,
    "Ġchu": 3348,
    "inky": 3349,
    "ete": 3350,
    "Ġwitch": 3351,
    "Ġtwig": 3352,
    "Ġstronger": 3353,
    "Ġsniff": 3354,
    "Ġshrimp": 3355,
    "Ġdelight": 3356,
    "Ġcupboard": 3357,
    "Ġchubby": 3358,
    "Ġang": 3359,
    "ĠToday": 3360,
    "ĠJake": 3361,
    "und": 3362,
    "ict": 3363,
    "ging": 3364,
    "Go": 3365,
    "Ġwool": 3366,
    "Ġsuccessful": 3367,
    "Ġreturned": 3368,
    "Ġlibr": 3369,
    "Ġinvited": 3370,
    "Ġhouses": 3371,
    "Ġgarage": 3372,
    "Ġbubble": 3373,
    "urb": 3374,
    "essie": 3375,
    "Ġsupport": 3376,
    "Ġshowing": 3377,
    "Ġnicely": 3378,
    "Ġneedle": 3379,
    "Ġmole": 3380,
    "Ġlively": 3381,
    "Ġlean": 3382,
    "Ġhelpless": 3383,
    "mbre": 3384,
    "Who": 3385,
    "Ġyet": 3386,
    "Ġumbre": 3387,
    "Ġpersistent": 3388,
    "Ġmoder": 3389,
    "Ġhelps": 3390,
    "Ġgrown": 3391,
    "Ġfearful": 3392,
    "Ġdough": 3393,
    "Ġalert": 3394,
    "ief": 3395,
    "anut": 3396,
    "Ġtrunk": 3397,
    "Ġsquee": 3398,
    "Ġsolve": 3399,
    "Ġshine": 3400,
    "Ġscoot": 3401,
    "Ġradish": 3402,
    "Ġgets": 3403,
    "Ġfridge": 3404,
    "Ġdreams": 3405,
    "Ġdisturb": 3406,
    "Ġclub": 3407,
    "anger": 3408,
    "Ġvalue": 3409,
    "Ġsleeping": 3410,
    "Ġoctopus": 3411,
    "Ġmodern": 3412,
    "Ġlicked": 3413,
    "Ġlow": 3414,
    "Ġdecide": 3415,
    "Ġcooked": 3416,
    "Ġbedroom": 3417,
    "ĠLulu": 3418,
    "oin": 3419,
    "Ġrepe": 3420,
    "Ġloudly": 3421,
    "Ġcreature": 3422,
    "Ġcere": 3423,
    "Ġcarp": 3424,
    "Ġbounced": 3425,
    "otter": 3426,
    "Ġwishes": 3427,
    "Ġways": 3428,
    "Ġuncle": 3429,
    "Ġtire": 3430,
    "Ġtank": 3431,
    "Ġspeed": 3432,
    "Ġspeak": 3433,
    "Ġsort": 3434,
    "Ġsle": 3435,
    "Ġquar": 3436,
    "Ġhive": 3437,
    "Ġdive": 3438,
    "Ġcity": 3439,
    "Ġbase": 3440,
    "Ġacce": 3441,
    "ĠSn": 3442,
    "Ġotter": 3443,
    "ense": 3444,
    "azz": 3445,
    "Ġumbrella": 3446,
    "Ġtruth": 3447,
    "Ġthunder": 3448,
    "Ġsplit": 3449,
    "Ġlearning": 3450,
    "Ġharder": 3451,
    "Ġhipp": 3452,
    "Ġgym": 3453,
    "Ġeraser": 3454,
    "Ġcandle": 3455,
    "orable": 3456,
    "Sarah": 3457,
    "Ġstation": 3458,
    "Ġspend": 3459,
    "Ġrepair": 3460,
    "Ġlit": 3461,
    "xy": 3462,
    "ric": 3463,
    "ilty": 3464,
    "cut": 3465,
    "Ġorder": 3466,
    "Ġmop": 3467,
    "Ġmild": 3468,
    "Ġguilty": 3469,
    "Ġfather": 3470,
    "Ġcherries": 3471,
    "Ġchalk": 3472,
    "Ġcereal": 3473,
    "ye": 3474,
    "ulif": 3475,
    "iron": 3476,
    "Billy": 3477,
    "Ġwheels": 3478,
    "Ġweek": 3479,
    "Ġvine": 3480,
    "Ġthief": 3481,
    "Ġquarrel": 3482,
    "Ġpointing": 3483,
    "Ġjewelry": 3484,
    "Ġjet": 3485,
    "Ġflashlight": 3486,
    "Ġcocoa": 3487,
    "Ġbiggest": 3488,
    "tern": 3489,
    "atient": 3490,
    "Ġsoar": 3491,
    "Ġsink": 3492,
    "Ġknot": 3493,
    "Ġimpatient": 3494,
    "Ġhomes": 3495,
    "Ġgrace": 3496,
    "Ġfountain": 3497,
    "Ġcaulif": 3498,
    "Ġcact": 3499,
    "Ġadorable": 3500,
    "ĠTrue": 3501,
    "ĠRob": 3502,
    "Ġed": 3503,
    "gen": 3504,
    "asing": 3505,
    "Ġpowder": 3506,
    "Ġlibrary": 3507,
    "Ġhappening": 3508,
    "Ġcarpet": 3509,
    "Ġcactus": 3510,
    "Ġsweater": 3511,
    "Ġstream": 3512,
    "Ġskipped": 3513,
    "Ġpengu": 3514,
    "Ġoffice": 3515,
    "Ġherb": 3516,
    "Ġforth": 3517,
    "Ġcase": 3518,
    "ten": 3519,
    "keep": 3520,
    "irit": 3521,
    "arming": 3522,
    "Bobo": 3523,
    "Ġstaff": 3524,
    "Ġshield": 3525,
    "Ġlying": 3526,
    "Ġhalf": 3527,
    "Ġgrandpa": 3528,
    "Ġfork": 3529,
    "Ġflute": 3530,
    "Ġfisher": 3531,
    "ĠDolly": 3532,
    "rage": 3533,
    "rn": 3534,
    "ory": 3535,
    "oby": 3536,
    "ject": 3537,
    "isted": 3538,
    "Ġwhenever": 3539,
    "Ġhippo": 3540,
    "Ġhandle": 3541,
    "Ġgrapes": 3542,
    "Ġcharming": 3543,
    "esday": 3544,
    "assion": 3545,
    "Ġvalu": 3546,
    "Ġtripped": 3547,
    "Ġskin": 3548,
    "Ġfeathers": 3549,
    "Ġcounting": 3550,
    "Ġcauliflower": 3551,
    "Ġangel": 3552,
    "zed": 3553,
    "ped": 3554,
    "levator": 3555,
    "acht": 3556,
    "Ġticket": 3557,
    "Ġthinking": 3558,
    "Ġthemselves": 3559,
    "Ġtap": 3560,
    "Ġstrawberry": 3561,
    "Ġslept": 3562,
    "Ġmarry": 3563,
    "Ġled": 3564,
    "Ġknows": 3565,
    "Ġhunt": 3566,
    "Ġelevator": 3567,
    "Ġdesign": 3568,
    "Ġavocado": 3569,
    "ĠPeter": 3570,
    "was": 3571,
    "washer": 3572,
    "lephone": 3573,
    "edy": 3574,
    "Ġyacht": 3575,
    "Ġwrapped": 3576,
    "Ġtelephone": 3577,
    "Ġspun": 3578,
    "Ġgifted": 3579,
    "Ġeventually": 3580,
    "Ġdishwasher": 3581,
    "Ġcomplain": 3582,
    "Ġcompetitive": 3583,
    "ellig": 3584,
    "Ġskip": 3585,
    "Ġshrink": 3586,
    "Ġintellig": 3587,
    "Ġexcite": 3588,
    "Ġiron": 3589,
    "Mummy": 3590,
    "Ġtray": 3591,
    "Ġtowers": 3592,
    "Ġsauce": 3593,
    "Ġquit": 3594,
    "Ġphoto": 3595,
    "Ġhaircut": 3596,
    "Ġgathered": 3597,
    "Ġflea": 3598,
    "Ġdisappoin": 3599,
    "Ġcompassion": 3600,
    "rill": 3601,
    "ates": 3602,
    "Ġwire": 3603,
    "Ġpole": 3604,
    "Ġpoem": 3605,
    "Ġpirate": 3606,
    "Ġnurse": 3607,
    "Ġgiggled": 3608,
    "Ġdecorate": 3609,
    "Ġdeter": 3610,
    "Ġanch": 3611,
    "ĠTweet": 3612,
    "ĠRose": 3613,
    "ulance": 3614,
    "opl": 3615,
    "eropl": 3616,
    "elery": 3617,
    "bulance": 3618,
    "Jim": 3619,
    "Ġwaff": 3620,
    "Ġvaluable": 3621,
    "Ġtorn": 3622,
    "Ġtoe": 3623,
    "Ġshape": 3624,
    "Ġrestless": 3625,
    "Ġquestion": 3626,
    "Ġham": 3627,
    "Ġears": 3628,
    "Ġcricket": 3629,
    "Ġanchor": 3630,
    "Ġambulance": 3631,
    "Ġaeropl": 3632,
    "Fluffy": 3633,
    "Ġyaw": 3634,
    "Ġvide": 3635,
    "Ġslides": 3636,
    "Ġnumb": 3637,
    "Ġhotel": 3638,
    "Ġdeterm": 3639,
    "Ġbuttons": 3640,
    "Ġbarrel": 3641,
    "ision": 3642,
    "ats": 3643,
    "aged": 3644,
    "ache": 3645,
    "Give": 3646,
    "Ġstranger": 3647,
    "Ġsett": 3648,
    "Ġedge": 3649,
    "body": 3650,
    "ating": 3651,
    "Ġzipper": 3652,
    "Ġwife": 3653,
    "Ġunlock": 3654,
    "Ġtrail": 3655,
    "Ġtears": 3656,
    "Ġshut": 3657,
    "Ġsight": 3658,
    "Ġpattern": 3659,
    "Ġnumbers": 3660,
    "Ġmeal": 3661,
    "Ġcelery": 3662,
    "Ġbull": 3663,
    "old": 3664,
    "Ġweigh": 3665,
    "Ġtrap": 3666,
    "Ġspinning": 3667,
    "Ġsalt": 3668,
    "Ġribb": 3669,
    "Ġpit": 3670,
    "Ġmeans": 3671,
    "Ġlaughs": 3672,
    "Ġintelligent": 3673,
    "Ġfisherman": 3674,
    "Ġdisappointed": 3675,
    "Ġcompassionate": 3676,
    "Ġbushes": 3677,
    "ĠJimmy": 3678,
    "ĠBoun": 3679,
    "del": 3680,
    "?\".": 3681,
    "Ġple": 3682,
    "Ġmodel": 3683,
    "Ġcomput": 3684,
    "Ġcardboard": 3685,
    "Ġbananas": 3686,
    "spit": 3687,
    "spital": 3688,
    "keeper": 3689,
    "iew": 3690,
    "head": 3691,
    "Ġwalls": 3692,
    "Ġview": 3693,
    "Ġsurf": 3694,
    "Ġsoldier": 3695,
    "Ġpear": 3696,
    "Ġnewsp": 3697,
    "Ġmug": 3698,
    "Ġjuicy": 3699,
    "Ġink": 3700,
    "Ġhospital": 3701,
    "Ġeither": 3702,
    "ĠToby": 3703,
    "ĠPete": 3704,
    "ĠKim": 3705,
    "quit": 3706,
    "quito": 3707,
    "ophie": 3708,
    "dest": 3709,
    "Ġshort": 3710,
    "Ġrid": 3711,
    "Ġoil": 3712,
    "Ġmitten": 3713,
    "Ġcurt": 3714,
    "Ġbirdc": 3715,
    "Ġadded": 3716,
    "nam": 3717,
    "ention": 3718,
    "Mr": 3719,
    "'d": 3720,
    "Ġsucce": 3721,
    "Ġspear": 3722,
    "Ġsilver": 3723,
    "Ġsafely": 3724,
    "Ġprep": 3725,
    "Ġpee": 3726,
    "Ġpap": 3727,
    "Ġpal": 3728,
    "Ġnail": 3729,
    "Ġdistant": 3730,
    "Ġcurtain": 3731,
    "Ġbirdcage": 3732,
    "ĠPeople": 3733,
    "ushed": 3734,
    "squito": 3735,
    "!\".": 3736,
    "Ġspilled": 3737,
    "Ġmosquito": 3738,
    "Ġenc": 3739,
    "Ġcrib": 3740,
    "utes": 3741,
    "uring": 3742,
    "uper": 3743,
    "ron": 3744,
    "fa": 3745,
    "aving": 3746,
    "Ġyogurt": 3747,
    "Ġwiped": 3748,
    "Ġtummy": 3749,
    "Ġtask": 3750,
    "Ġrode": 3751,
    "Ġquestions": 3752,
    "Ġplayground": 3753,
    "Ġpainter": 3754,
    "Ġpale": 3755,
    "Ġpurse": 3756,
    "Ġlights": 3757,
    "Ġlabel": 3758,
    "Ġdreamed": 3759,
    "Ġcostume": 3760,
    "Ġcoins": 3761,
    "Ġcob": 3762,
    "Ġbikes": 3763,
    "Ġbump": 3764,
    "ĠBuzz": 3765,
    "par": 3766,
    "Ġsucceed": 3767,
    "Ġspirit": 3768,
    "Ġshocked": 3769,
    "Ġrubber": 3770,
    "Ġpretending": 3771,
    "Ġmotorcy": 3772,
    "Ġminutes": 3773,
    "Ġgraceful": 3774,
    "Ġglove": 3775,
    "Ġaeroplane": 3776,
    "ĠOK": 3777,
    "urch": 3778,
    "opter": 3779,
    "ocer": 3780,
    "inocer": 3781,
    "icopter": 3782,
    "ately": 3783,
    "ait": 3784,
    ",âĢĿ": 3785,
    "Ġstack": 3786,
    "Ġsausage": 3787,
    "Ġprov": 3788,
    "Ġpalace": 3789,
    "Ġpor": 3790,
    "Ġitself": 3791,
    "Ġhelicopter": 3792,
    "Ġfalls": 3793,
    "Ġdust": 3794,
    "Ġcomputer": 3795,
    "Ġcollar": 3796,
    "Ġcoal": 3797,
    "Ġchain": 3798,
    "ĠLittle": 3799,
    "uel": 3800,
    "stal": 3801,
    "riger": 3802,
    "rigerator": 3803,
    "nament": 3804,
    "inoceros": 3805,
    "Ġscooter": 3806,
    "Ġpun": 3807,
    "Ġornament": 3808,
    "Ġknob": 3809,
    "Ġkindness": 3810,
    "Ġcrystal": 3811,
    "ucet": 3812,
    "Ġsteps": 3813,
    "Ġrod": 3814,
    "Ġparade": 3815,
    "Ġpacked": 3816,
    "Ġoak": 3817,
    "Ġmelt": 3818,
    "Ġlime": 3819,
    "Ġgolf": 3820,
    "Ġgear": 3821,
    "Ġfaucet": 3822,
    "Ġax": 3823,
    "ĠTeddy": 3824,
    "umbled": 3825,
    "Ġvend": 3826,
    "Ġthose": 3827,
    "Ġrefrigerator": 3828,
    "Ġnewspaper": 3829,
    "Ġmodest": 3830,
    "Ġlie": 3831,
    "Ġleash": 3832,
    "Ġhour": 3833,
    "Ġeye": 3834,
    "Ġbaseball": 3835,
    "ĠEverywhere": 3836,
    "ugged": 3837,
    "rework": 3838,
    "levision": 3839,
    "ilot": 3840,
    "cing": 3841,
    "Is": 3842,
    "Ġsepar": 3843,
    "Ġsuper": 3844,
    "Ġrhinoceros": 3845,
    "Ġpicking": 3846,
    "Ġmatt": 3847,
    "Ġmakeup": 3848,
    "Ġlic": 3849,
    "Ġhate": 3850,
    "Ġfirework": 3851,
    "Ġfog": 3852,
    "Ġdriving": 3853,
    "Ġdisappeared": 3854,
    "Ġcomplet": 3855,
    "Ġcable": 3856,
    "Ġbrothers": 3857,
    "Ġavail": 3858,
    "ĠBill": 3859,
    "stri": 3860,
    "ampoo": 3861,
    "Ġvideo": 3862,
    "Ġtelevision": 3863,
    "Ġswinging": 3864,
    "Ġsofa": 3865,
    "Ġserve": 3866,
    "Ġresc": 3867,
    "Ġpine": 3868,
    "Ġonion": 3869,
    "Ġoften": 3870,
    "Ġnovel": 3871,
    "Ġlicense": 3872,
    "Ġinse": 3873,
    "ĠSpike": 3874,
    "ĠGive": 3875,
    "time": 3876,
    "roph": 3877,
    "aked": 3878,
    "Well": 3879,
    "Ġspell": 3880,
    "Ġrubbed": 3881,
    "Ġpolish": 3882,
    "Ġmedal": 3883,
    "Ġmanaged": 3884,
    "Ġmath": 3885,
    "Ġhall": 3886,
    "Ġhook": 3887,
    "Ġdetermined": 3888,
    "Ġcups": 3889,
    "Ġchurch": 3890,
    "Ġaxe": 3891,
    "Ġavailable": 3892,
    "ĠCl": 3893,
    "ĠBirdy": 3894,
    "web": 3895,
    "rophone": 3896,
    "Ġtaller": 3897,
    "Ġsparkly": 3898,
    "Ġscrew": 3899,
    "Ġporch": 3900,
    "Ġmissile": 3901,
    "Ġmeadow": 3902,
    "Ġdrawings": 3903,
    "Ġdisappear": 3904,
    "Ġcooler": 3905,
    "Ġcobweb": 3906,
    "Ġbags": 3907,
    "Ġalarm": 3908,
    "ĠMum": 3909,
    "ĠFo": 3910,
    "ĠBet": 3911,
    "stairs": 3912,
    "htub": 3913,
    "drobe": 3914,
    "ckey": 3915,
    "arry": 3916,
    "Ġwardrobe": 3917,
    "Ġvendor": 3918,
    "Ġstared": 3919,
    "Ġpenguin": 3920,
    "Ġmetal": 3921,
    "Ġhockey": 3922,
    "Ġgrowl": 3923,
    "Ġdiary": 3924,
    "Ġclimbing": 3925,
    "Ġbookshe": 3926,
    "Ġbathtub": 3927,
    "Ġbasketball": 3928,
    "Ġbandage": 3929,
    "Ġig": 3930,
    "usia": 3931,
    "ready": 3932,
    "loo": 3933,
    "husia": 3934,
    "erc": 3935,
    "Bye": 3936,
    "Ġveil": 3937,
    "Ġthread": 3938,
    "Ġrolling": 3939,
    "Ġrice": 3940,
    "Ġostri": 3941,
    "Ġminer": 3942,
    "Ġmeat": 3943,
    "Ġmay": 3944,
    "Ġigloo": 3945,
    "Ġhurry": 3946,
    "Ġgasped": 3947,
    "Ġenthusia": 3948,
    "Ġcherry": 3949,
    "Ġbookshelf": 3950,
    "Ġbattery": 3951,
    "Ġalready": 3952,
    "ĠJohnny": 3953,
    "omed": 3954,
    "Wait": 3955,
    "Re": 3956,
    "Ġswung": 3957,
    "Ġstud": 3958,
    "Ġstretched": 3959,
    "Ġroot": 3960,
    "Ġrise": 3961,
    "Ġpapers": 3962,
    "Ġorganize": 3963,
    "Ġmagaz": 3964,
    "Ġknock": 3965,
    "Ġitch": 3966,
    "Ġinsect": 3967,
    "Ġhunter": 3968,
    "Ġgrape": 3969,
    "Ġexplain": 3970,
    "Ġcomet": 3971,
    "ĠSnow": 3972,
    "ĠPipp": 3973,
    "verse": 3974,
    "istol": 3975,
    "affe": 3976,
    "See": 3977,
    "Al": 3978,
    "Ġobject": 3979,
    "Ġok": 3980,
    "Ġnotice": 3981,
    "Ġmotorcycle": 3982,
    "Ġmicrophone": 3983,
    "Ġmattress": 3984,
    "Ġmummy": 3985,
    "Ġlumber": 3986,
    "Ġbicy": 3987,
    "ricane": 3988,
    "nger": 3989,
    "Ġsnap": 3990,
    "Ġrealised": 3991,
    "Ġreward": 3992,
    "Ġpistol": 3993,
    "Ġpilot": 3994,
    "Ġmustache": 3995,
    "Ġimpro": 3996,
    "Ġflame": 3997,
    "Ġexerc": 3998,
    "Ġencou": 3999,
    "Ġdreaming": 4000,
    "Ġdess": 4001,
    "Ġcooking": 4002,
    "Ġarg": 4003,
    "ometer": 4004,
    "lcan": 4005,
    "asp": 4006,
    "aul": 4007,
    "Gra": 4008,
    "Ġwinter": 4009,
    "Ġwallet": 4010,
    "Ġvolcan": 4011,
    "Ġunpack": 4012,
    "Ġtroph": 4013,
    "Ġsuggest": 4014,
    "Ġsheet": 4015,
    "Ġjokes": 4016,
    "Ġflour": 4017,
    "Ġfought": 4018,
    "Ġblackboard": 4019,
    "ĠZoomy": 4020,
    "rmometer": 4021,
    "lter": 4022,
    "ipe": 4023,
    "iano": 4024,
    "aches": 4025,
    "Ġpeanut": 4026,
    "Ġpastry": 4027,
    "Ġnetwork": 4028,
    "Ġfalling": 4029,
    "Ġbuckle": 4030,
    "Ġblin": 4031,
    "Ġbicycle": 4032,
    "ĠLee": 4033,
    "aid": 4034,
    "Ouch": 4035,
    "Ġvolcano": 4036,
    "Ġvi": 4037,
    "Ġtrucks": 4038,
    "Ġtrophy": 4039,
    "Ġsunset": 4040,
    "Ġshampoo": 4041,
    "Ġrake": 4042,
    "Ġcalling": 4043,
    "Ġcamp": 4044,
    "Ġbent": 4045,
    "aky": 4046,
    "Ġweep": 4047,
    "Ġstom": 4048,
    "Ġpressed": 4049,
    "Ġpractice": 4050,
    "Ġpiano": 4051,
    "Ġostrich": 4052,
    "Ġneat": 4053,
    "Ġdrain": 4054,
    "Ġbeef": 4055,
    "Ġattach": 4056,
    "ĠPandy": 4057,
    "ured": 4058,
    "lies": 4059,
    "aspoon": 4060,
    "angu": 4061,
    "Ġtrains": 4062,
    "Ġteaspoon": 4063,
    "Ġsweetie": 4064,
    "Ġstable": 4065,
    "Ġshelter": 4066,
    "Ġpoke": 4067,
    "Ġpackage": 4068,
    "Ġmem": 4069,
    "Ġhuman": 4070,
    "Ġhours": 4071,
    "Ġhanging": 4072,
    "Ġhammer": 4073,
    "Ġbury": 4074,
    "Ġapron": 4075,
    "ummer": 4076,
    "bol": 4077,
    "aroo": 4078,
    "angaroo": 4079,
    "Ġtrack": 4080,
    "Ġsquirrels": 4081,
    "Ġsne": 4082,
    "Ġsym": 4083,
    "Ġrag": 4084,
    "Ġpatch": 4085,
    "Ġoffered": 4086,
    "Ġmessage": 4087,
    "Ġmarched": 4088,
    "Ġkangaroo": 4089,
    "Ġins": 4090,
    "Ġhut": 4091,
    "Ġenjoying": 4092,
    "Ġdiscovered": 4093,
    "Ġcrane": 4094,
    "Ġblouse": 4095,
    "Ġagainst": 4096,
    "Ġow": 4097,
    "zag": 4098,
    "ube": 4099,
    "play": 4100,
    "igzag": 4101,
    "ctory": 4102,
    "Ġur": 4103,
    "Ġtube": 4104,
    "Ġsymbol": 4105,
    "Ġskull": 4106,
    "Ġskirt": 4107,
    "Ġprunes": 4108,
    "Ġpassport": 4109,
    "Ġmagazine": 4110,
    "Ġlend": 4111,
    "Ġlangu": 4112,
    "Ġfactory": 4113,
    "Ġearly": 4114,
    "Ġdisplay": 4115,
    "ĠJo": 4116,
    "ature": 4117,
    "Ġstairs": 4118,
    "Ġshovel": 4119,
    "Ġprevent": 4120,
    "Ġpeeked": 4121,
    "Ġnation": 4122,
    "Ġholds": 4123,
    "Ġfrogs": 4124,
    "Ġfingers": 4125,
    "Ġfuel": 4126,
    "Ġexcitement": 4127,
    "ĠFro": 4128,
    "stic": 4129,
    "Little": 4130,
    "Ġuniver": 4131,
    "Ġten": 4132,
    "Ġson": 4133,
    "Ġrot": 4134,
    "Ġperm": 4135,
    "Ġonce": 4136,
    "Ġlip": 4137,
    "Ġjournal": 4138,
    "Ġenthusiastic": 4139,
    "Ġdessert": 4140,
    "Ġcheck": 4141,
    "Ġcastles": 4142,
    "Ġcell": 4143,
    "Ġbathe": 4144,
    "Ġaccidentally": 4145,
    "ĠZip": 4146,
    "ĠLook": 4147,
    "ĠBessie": 4148,
    "leton": 4149,
    "keleton": 4150,
    "Ġyoga": 4151,
    "Ġtheater": 4152,
    "Ġpopped": 4153,
    "Ġopens": 4154,
    "Ġoy": 4155,
    "Ġkne": 4156,
    "Ġjunk": 4157,
    "Ġhappier": 4158,
    "Ġfreez": 4159,
    "Ġfootball": 4160,
    "Ġcube": 4161,
    "ĠDan": 4162,
    "ium": 4163,
    "ience": 4164,
    "ffic": 4165,
    "Ġzoomed": 4166,
    "Ġthermometer": 4167,
    "Ġtelling": 4168,
    "Ġshaking": 4169,
    "Ġskeleton": 4170,
    "Ġreading": 4171,
    "Ġpipe": 4172,
    "Ġmatches": 4173,
    "Ġloop": 4174,
    "Ġhedge": 4175,
    "Ġgrowing": 4176,
    "Ġfive": 4177,
    "Ġcord": 4178,
    "Ġbathrobe": 4179,
    "Ġallowed": 4180,
    "ĠHere": 4181,
    "ĠBuzzy": 4182,
    "xygen": 4183,
    "ination": 4184,
    "come": 4185,
    "azor": 4186,
    "Ġslipp": 4187,
    "Ġrestore": 4188,
    "Ġfastest": 4189,
    "Ġdistance": 4190,
    "Ġdisag": 4191,
    "ĠâĢ": 4192,
    "ney": 4193,
    "ionary": 4194,
    "ines": 4195,
    "ictionary": 4196,
    "Ġstumbled": 4197,
    "Ġpinch": 4198,
    "Ġlistening": 4199,
    "Ġhanger": 4200,
    "hero": 4201,
    "case": 4202,
    "Ġviol": 4203,
    "Ġsuperhero": 4204,
    "Ġstirred": 4205,
    "Ġribbon": 4206,
    "Ġplanet": 4207,
    "Ġpeek": 4208,
    "Ġgoal": 4209,
    "Ġfilm": 4210,
    "Ġdictionary": 4211,
    "Ġadmire": 4212,
    "Ġahead": 4213,
    "fast": 4214,
    "Sh": 4215,
    "Joe": 4216,
    "Ġviolin": 4217,
    "Ġtrash": 4218,
    "Ġtoile": 4219,
    "Ġsurprises": 4220,
    "Ġstickers": 4221,
    "Ġreverse": 4222,
    "Ġhelper": 4223,
    "Ġgaz": 4224,
    "Ġcomplete": 4225,
    "Ġchose": 4226,
    "Ġbrick": 4227,
    "Ġalive": 4228,
    "ĠTina": 4229,
    "ĠMummy": 4230,
    "astic": 4231,
    "arian": 4232,
    "Ġstrugg": 4233,
    "Ġstops": 4234,
    "Ġsub": 4235,
    "Ġpoppy": 4236,
    "Ġpony": 4237,
    "Ġjumps": 4238,
    "Ġchasing": 4239,
    "undry": 4240,
    "place": 4241,
    "iest": 4242,
    "cu": 4243,
    "apon": 4244,
    "Jill": 4245,
    "Ġrespectful": 4246,
    "Ġrail": 4247,
    "Ġmineral": 4248,
    "Ġlaundry": 4249,
    "Ġfreezer": 4250,
    "Ġdoesn": 4251,
    "Ġcircles": 4252,
    "Ġcudd": 4253,
    "Ġbreakfast": 4254,
    "Ġblinked": 4255,
    "Ġbill": 4256,
    "Ġaccept": 4257,
    "ĠEllie": 4258,
    "stiv": 4259,
    "stival": 4260,
    "render": 4261,
    "lid": 4262,
    "chan": 4263,
    "Ġvest": 4264,
    "Ġtoilet": 4265,
    "Ġtooth": 4266,
    "Ġswitch": 4267,
    "Ġstrip": 4268,
    "Ġsummer": 4269,
    "Ġrefused": 4270,
    "Ġplayer": 4271,
    "Ġleaving": 4272,
    "Ġlaser": 4273,
    "Ġhurricane": 4274,
    "Ġgrill": 4275,
    "Ġfestival": 4276,
    "Ġexercise": 4277,
    "Ġbeet": 4278,
    "liday": 4279,
    "adium": 4280,
    "Ġwaffle": 4281,
    "Ġstadium": 4282,
    "Ġlions": 4283,
    "Ġleak": 4284,
    "Ġlanguage": 4285,
    "Ġholiday": 4286,
    "Ġfireplace": 4287,
    "Ġdoors": 4288,
    "Ġcabinet": 4289,
    "ĠMrs": 4290,
    "htray": 4291,
    "Did": 4292,
    "Ġtwir": 4293,
    "Ġspoke": 4294,
    "Ġsniffed": 4295,
    "Ġsneeze": 4296,
    "Ġsearching": 4297,
    "Ġrules": 4298,
    "Ġpleased": 4299,
    "Ġmonkeys": 4300,
    "Ġmint": 4301,
    "Ġmeowed": 4302,
    "Ġmen": 4303,
    "Ġberry": 4304,
    "Ġairport": 4305,
    "ĠZoom": 4306,
    "ĠElly": 4307,
    "wards": 4308,
    "med": 4309,
    "iches": 4310,
    "Ow": 4311,
    "Em": 4312,
    "Ġtraffic": 4313,
    "Ġtightly": 4314,
    "Ġtip": 4315,
    "Ġslap": 4316,
    "Ġsandwiches": 4317,
    "Ġroared": 4318,
    "Ġrazor": 4319,
    "Ġoats": 4320,
    "Ġlemons": 4321,
    "Ġlawn": 4322,
    "Ġforgave": 4323,
    "Ġfavour": 4324,
    "Ġcomfort": 4325,
    "ĠBetty": 4326,
    "ki": 4327,
    "ince": 4328,
    "imney": 4329,
    "iggly": 4330,
    "chanic": 4331,
    "Ġwindows": 4332,
    "Ġstomach": 4333,
    "Ġsticker": 4334,
    "Ġslip": 4335,
    "Ġseparate": 4336,
    "Ġsent": 4337,
    "Ġplastic": 4338,
    "Ġpair": 4339,
    "Ġobser": 4340,
    "Ġnature": 4341,
    "Ġmeeting": 4342,
    "Ġmechanic": 4343,
    "Ġfinds": 4344,
    "Ġfavourite": 4345,
    "Ġchimney": 4346,
    "Ġcaring": 4347,
    "Ġcur": 4348,
    "Ġboots": 4349,
    "Ġashtray": 4350,
    "Ġanyway": 4351,
    "Ġagree": 4352,
    "ĠOr": 4353,
    "ĠMar": 4354,
    "sses": 4355,
    "ement": 4356,
    "Ġunite": 4357,
    "Ġtomatoes": 4358,
    "Ġresist": 4359,
    "Ġmixer": 4360,
    "Ġlightning": 4361,
    "Ġgrabs": 4362,
    "Ġener": 4363,
    "Ġcows": 4364,
    "Ġbreat": 4365,
    "Ġblueberry": 4366,
    "Ġbeetle": 4367,
    "Ġbarking": 4368,
    "ĠJazz": 4369,
    "year": 4370,
    "hic": 4371,
    "Ġvehic": 4372,
    "Ġsubway": 4373,
    "Ġsport": 4374,
    "Ġpoint": 4375,
    "Ġpoked": 4376,
    "Ġminute": 4377,
    "Ġletters": 4378,
    "Ġimagine": 4379,
    "Ġholes": 4380,
    "Ġgiraffe": 4381,
    "Ġclassroom": 4382,
    "Ġcards": 4383,
    "Ġbelongs": 4384,
    "ĠAre": 4385,
    "ĠY": 4386,
    "night": 4387,
    "la": 4388,
    "hter": 4389,
    "book": 4390,
    "ayak": 4391,
    "amber": 4392,
    "Ġremove": 4393,
    "Ġoyster": 4394,
    "Ġnotebook": 4395,
    "Ġmistakes": 4396,
    "Ġlaughter": 4397,
    "Ġkayak": 4398,
    "Ġinvite": 4399,
    "Ġflood": 4400,
    "Ġbillboard": 4401,
    "ĠSophie": 4402,
    "ĠPippin": 4403,
    "ĠBounce": 4404,
    "ĠBig": 4405,
    "te": 4406,
    "apa": 4407,
    "Ġyield": 4408,
    "Ġremain": 4409,
    "Ġrac": 4410,
    "Ġpuddles": 4411,
    "Ġoxygen": 4412,
    "Ġnames": 4413,
    "Ġmusician": 4414,
    "Ġleaned": 4415,
    "Ġimprove": 4416,
    "Ġhanded": 4417,
    "Ġcountry": 4418,
    "Ġcartoon": 4419,
    "ĠAlice": 4420,
    "chair": 4421,
    "cast": 4422,
    "Jimmy": 4423,
    "Ġwhip": 4424,
    "Ġwarned": 4425,
    "Ġwarn": 4426,
    "Ġswamp": 4427,
    "Ġspoil": 4428,
    "Ġsandcast": 4429,
    "Ġsudden": 4430,
    "Ġsize": 4431,
    "Ġproudly": 4432,
    "Ġproblems": 4433,
    "Ġglowing": 4434,
    "Ġcourage": 4435,
    "Ġchamber": 4436,
    "Ġbookcase": 4437,
    "ĠSandy": 4438,
    "vice": 4439,
    "ola": 4440,
    "lend": 4441,
    "inarian": 4442,
    "igi": 4443,
    "eterinarian": 4444,
    "eb": 4445,
    "Ġwipe": 4446,
    "Ġwine": 4447,
    "Ġstrawberries": 4448,
    "Ġsadly": 4449,
    "Ġpushes": 4450,
    "Ġpulls": 4451,
    "Ġlawy": 4452,
    "Ġdancer": 4453,
    "Ġbeep": 4454,
    "Ġabove": 4455,
    "ĠRu": 4456,
    "ison": 4457,
    "Ġtrade": 4458,
    "Ġsurrender": 4459,
    "Ġsoil": 4460,
    "Ġslippery": 4461,
    "Ġsandbox": 4462,
    "Ġrescue": 4463,
    "Ġpanic": 4464,
    "Ġpages": 4465,
    "Ġnavy": 4466,
    "Ġfrowned": 4467,
    "Ġfre": 4468,
    "Ġcopper": 4469,
    "Ġcliff": 4470,
    "Ġceiling": 4471,
    "Ġbutterflies": 4472,
    "Ġappl": 4473,
    "ĠCo": 4474,
    "usie": 4475,
    "rod": 4476,
    "emember": 4477,
    "coli": 4478,
    "ccoli": 4479,
    "Ġveterinarian": 4480,
    "Ġtease": 4481,
    "Ġrece": 4482,
    "Ġplanes": 4483,
    "Ġpage": 4484,
    "Ġkneel": 4485,
    "Ġkinds": 4486,
    "Ġincre": 4487,
    "Ġfort": 4488,
    "Ġfeelings": 4489,
    "Ġcarrying": 4490,
    "Ġarmchair": 4491,
    "Ġart": 4492,
    "ĠPolly": 4493,
    "ĠOw": 4494,
    "Ġx": 4495,
    "gie": 4496,
    "ecause": 4497,
    "ebra": 4498,
    "aud": 4499,
    "Ġweapon": 4500,
    "Ġstair": 4501,
    "Ġrepeat": 4502,
    "Ġprovide": 4503,
    "Ġintrod": 4504,
    "Ġignore": 4505,
    "Ġenergy": 4506,
    "Ġdelay": 4507,
    "Ġbrightly": 4508,
    "Ġbelieved": 4509,
    "scope": 4510,
    "roscope": 4511,
    "nesday": 4512,
    "lendar": 4513,
    "lu": 4514,
    "ednesday": 4515,
    "cer": 4516,
    "anda": 4517,
    "Ġwaste": 4518,
    "Ġtools": 4519,
    "Ġsomewhere": 4520,
    "Ġshakes": 4521,
    "Ġregret": 4522,
    "Ġprayed": 4523,
    "Ġped": 4524,
    "Ġmailman": 4525,
    "Ġlid": 4526,
    "Ġheat": 4527,
    "Ġcalendar": 4528,
    "ĠPaul": 4529,
    "olog": 4530,
    "low": 4531,
    "imed": 4532,
    "Ġzebra": 4533,
    "Ġsounded": 4534,
    "Ġsandcastle": 4535,
    "Ġsaving": 4536,
    "Ġreminded": 4537,
    "Ġolder": 4538,
    "Ġnobody": 4539,
    "Ġmeas": 4540,
    "Ġlives": 4541,
    "Ġkeeping": 4542,
    "Ġapolog": 4543,
    "Ġadvice": 4544,
    "Ġaw": 4545,
    "ĠWhere": 4546,
    "ĠGod": 4547,
    "itation": 4548,
    "elcome": 4549,
    "Your": 4550,
    "Ġvehicle": 4551,
    "Ġraise": 4552,
    "Ġprice": 4553,
    "Ġmystery": 4554,
    "Ġlawyer": 4555,
    "Ġfreeze": 4556,
    "Ġflies": 4557,
    "Ġext": 4558,
    "Ġchoice": 4559,
    "Ġcane": 4560,
    "Ġanywhere": 4561,
    "hest": 4562,
    "eer": 4563,
    "Ġtax": 4564,
    "Ġsuggested": 4565,
    "Ġstarts": 4566,
    "Ġsoftly": 4567,
    "Ġshouts": 4568,
    "Ġshone": 4569,
    "Ġrooms": 4570,
    "Ġrushed": 4571,
    "Ġletting": 4572,
    "Ġinclu": 4573,
    "Ġimagined": 4574,
    "Ġhappens": 4575,
    "Ġdear": 4576,
    "Ġcrossed": 4577,
    "Ġcolourful": 4578,
    "Ġchairs": 4579,
    "Ġbreaks": 4580,
    "ĠSu": 4581,
    "ĠGrandpa": 4582,
    "ores": 4583,
    "ogn": 4584,
    "lex": 4585,
    "aurant": 4586,
    "alley": 4587,
    "aggie": 4588,
    "Ġtaxi": 4589,
    "Ġsqueeze": 4590,
    "Ġsmells": 4591,
    "Ġrestaurant": 4592,
    "Ġreplace": 4593,
    "Ġrecogn": 4594,
    "Ġpitch": 4595,
    "Ġexcitedly": 4596,
    "Ġeaten": 4597,
    "Ġchickens": 4598,
    "Ġapplaud": 4599,
    "ĠWiggly": 4600,
    "ĠPapa": 4601,
    "ĠNext": 4602,
    "ĠGigi": 4603,
    "orge": 4604,
    "indeer": 4605,
    "eorge": 4606,
    "apping": 4607,
    "Next": 4608,
    "Mary": 4609,
    "Mark": 4610,
    "Ġvalley": 4611,
    "Ġtrem": 4612,
    "Ġtub": 4613,
    "Ġsteam": 4614,
    "Ġreindeer": 4615,
    "Ġranch": 4616,
    "Ġrained": 4617,
    "Ġolive": 4618,
    "Ġgain": 4619,
    "Ġfile": 4620,
    "Ġcontent": 4621,
    "Ġbroccoli": 4622,
    "Ġblowing": 4623,
    "ĠCarl": 4624,
    "arlie": 4625,
    "Ġmicroscope": 4626,
    "Ġextra": 4627,
    "Ġended": 4628,
    "Ġequ": 4629,
    "Ġdishes": 4630,
    "ĠWould": 4631,
    "ĠWednesday": 4632,
    "ĠSte": 4633,
    "ĠV": 4634,
    "utor": 4635,
    "na": 4636,
    "ero": 4637,
    "ected": 4638,
    "Yuck": 4639,
    "Yay": 4640,
    "Ġtornado": 4641,
    "Ġspade": 4642,
    "Ġsneezed": 4643,
    "Ġreve": 4644,
    "Ġprepare": 4645,
    "Ġmass": 4646,
    "Ġhung": 4647,
    "Ġfresh": 4648,
    "Ġevent": 4649,
    "Ġdelighted": 4650,
    "Ġdare": 4651,
    "Ġchewed": 4652,
    "Ġbouncing": 4653,
    "Ġblueberries": 4654,
    "Ġbarks": 4655,
    "vet": 4656,
    "tain": 4657,
    "ggy": 4658,
    "Will": 4659,
    "Daisy": 4660,
    "Ġtutor": 4661,
    "Ġsettle": 4662,
    "Ġscold": 4663,
    "Ġriding": 4664,
    "Ġpoison": 4665,
    "Ġmyself": 4666,
    "Ġhoping": 4667,
    "Ġheads": 4668,
    "Ġgro": 4669,
    "Ġchance": 4670,
    "Ġargue": 4671,
    "ĠFl": 4672,
    "illie": 4673,
    "acation": 4674,
    "Ready": 4675,
    "Ġvacation": 4676,
    "Ġshrugged": 4677,
    "Ġquiz": 4678,
    "Ġopera": 4679,
    "ĠFreddy": 4680,
    "ĠBinky": 4681,
    "ipment": 4682,
    "cuss": 4683,
    "asis": 4684,
    "Qu": 4685,
    "Ġweather": 4686,
    "Ġskill": 4687,
    "Ġshivering": 4688,
    "Ġseas": 4689,
    "Ġsuff": 4690,
    "Ġprints": 4691,
    "Ġmissing": 4692,
    "Ġgiggle": 4693,
    "Ġfloat": 4694,
    "Ġevening": 4695,
    "Ġequipment": 4696,
    "Ġenter": 4697,
    "Ġdiscuss": 4698,
    "Ġchores": 4699,
    "Ġburned": 4700,
    "Ġbend": 4701,
    "Ġbaking": 4702,
    "ĠSpark": 4703,
    "ĠEnd": 4704,
    "ucture": 4705,
    "noon": 4706,
    "acked": 4707,
    "Ġthanks": 4708,
    "Ġstructure": 4709,
    "Ġsty": 4710,
    "Ġreveal": 4711,
    "Ġpushing": 4712,
    "Ġprune": 4713,
    "Ġoasis": 4714,
    "Ġmention": 4715,
    "Ġinvitation": 4716,
    "Ġfixing": 4717,
    "Ġafternoon": 4718,
    "ky": 4719,
    "inking": 4720,
    "heart": 4721,
    "Ġyawned": 4722,
    "Ġwriting": 4723,
    "Ġtrusted": 4724,
    "Ġthrows": 4725,
    "Ġthrowing": 4726,
    "Ġspots": 4727,
    "Ġsocks": 4728,
    "Ġpuzzles": 4729,
    "Ġplaced": 4730,
    "Ġperfume": 4731,
    "Ġhills": 4732,
    "Ġgrand": 4733,
    "Ġdem": 4734,
    "Ġbumped": 4735,
    "ĠUnder": 4736,
    "ĠLilly": 4737,
    "sity": 4738,
    "otten": 4739,
    "ana": 4740,
    "Ann": 4741,
    "Ġtracks": 4742,
    "Ġparts": 4743,
    "Ġmall": 4744,
    "Ġluck": 4745,
    "Ġinsisted": 4746,
    "Ġcoats": 4747,
    "Ġcaptain": 4748,
    "Ġbelow": 4749,
    "Ġbeans": 4750,
    "ĠMike": 4751,
    "queaky": 4752,
    "happy": 4753,
    "ef": 4754,
    "Ch": 4755,
    "Buddy": 4756,
    "\",": 4757,
    "Ġsweetheart": 4758,
    "Ġsticky": 4759,
    "Ġshower": 4760,
    "Ġshoulder": 4761,
    "Ġsew": 4762,
    "Ġsigh": 4763,
    "Ġprinted": 4764,
    "Ġpastel": 4765,
    "Ġfollowing": 4766,
    "Ġclaw": 4767,
    "Ġcared": 4768,
    "Ġbrighter": 4769,
    "ĠMe": 4770,
    "va": 4771,
    "peedy": 4772,
    "omm": 4773,
    "ommend": 4774,
    "Not": 4775,
    "All": 4776,
    "Ġunhappy": 4777,
    "Ġteaching": 4778,
    "Ġrecommend": 4779,
    "Ġpunish": 4780,
    "Ġpanda": 4781,
    "Ġimpressed": 4782,
    "Ġgreedy": 4783,
    "Ġexpect": 4784,
    "ĠUn": 4785,
    "ĠBow": 4786,
    "uggage": 4787,
    "look": 4788,
    "iform": 4789,
    "ations": 4790,
    "Ġuniform": 4791,
    "Ġexper": 4792,
    "Ġdeeper": 4793,
    "Ġcandles": 4794,
    "Ġbeg": 4795,
    "ĠRo": 4796,
    "ĠHoppy": 4797,
    "ĠHave": 4798,
    "nce": 4799,
    "lp": 4800,
    "enry": 4801,
    "Jenny": 4802,
    "Daddy": 4803,
    "Before": 4804,
    "Ġyucky": 4805,
    "Ġweight": 4806,
    "Ġtour": 4807,
    "Ġsprayed": 4808,
    "Ġsplashing": 4809,
    "Ġsparkled": 4810,
    "Ġscore": 4811,
    "Ġluggage": 4812,
    "Ġhen": 4813,
    "Ġeasily": 4814,
    "Ġcub": 4815,
    "Ġclapping": 4816,
    "ĠPenny": 4817,
    "ĠEventually": 4818,
    "ĠChe": 4819,
    "looking": 4820,
    "ittens": 4821,
    "arnt": 4822,
    "Surpr": 4823,
    "Ġwhisper": 4824,
    "Ġsteel": 4825,
    "Ġsir": 4826,
    "Ġracing": 4827,
    "Ġlemonade": 4828,
    "Ġlearnt": 4829,
    "Ġignored": 4830,
    "Ġfollows": 4831,
    "Ġdestroyed": 4832,
    "Ġchecked": 4833,
    "ĠHelp": 4834,
    "urnit": 4835,
    "urniture": 4836,
    "ucked": 4837,
    "riage": 4838,
    "hood": 4839,
    "ecting": 4840,
    "cond": 4841,
    "ari": 4842,
    "anges": 4843,
    "Mimi": 4844,
    "Ġworms": 4845,
    "Ġwigg": 4846,
    "Ġvanished": 4847,
    "Ġupstairs": 4848,
    "Ġtremble": 4849,
    "Ġspr": 4850,
    "Ġselling": 4851,
    "Ġsecond": 4852,
    "Ġscattered": 4853,
    "Ġpermit": 4854,
    "Ġfro": 4855,
    "Ġfurniture": 4856,
    "Ġcheek": 4857,
    "Ġchirp": 4858,
    "Ġburied": 4859,
    "ĠWhenever": 4860,
    "ĠSusie": 4861,
    "ĠOlive": 4862,
    "ween": 4863,
    "uct": 4864,
    "reek": 4865,
    "iki": 4866,
    "ents": 4867,
    "Welcome": 4868,
    "Ġwhistled": 4869,
    "Ġvroom": 4870,
    "Ġstreng": 4871,
    "Ġsorting": 4872,
    "Ġreef": 4873,
    "Ġjogged": 4874,
    "Ġjail": 4875,
    "Ġentered": 4876,
    "Ġdemand": 4877,
    "Ġcreek": 4878,
    "Ġbetween": 4879,
    "Ġbadly": 4880,
    "ĠSnowy": 4881,
    "ĠIs": 4882,
    "redient": 4883,
    "laimed": 4884,
    "ingredient": 4885,
    "ides": 4886,
    "ecture": 4887,
    "Ġwre": 4888,
    "Ġthumb": 4889,
    "Ġsupply": 4890,
    "Ġstyle": 4891,
    "Ġrush": 4892,
    "Ġquite": 4893,
    "Ġpoints": 4894,
    "Ġpaid": 4895,
    "Ġmassage": 4896,
    "Ġmarble": 4897,
    "Ġlecture": 4898,
    "Ġhopes": 4899,
    "Ġexclaimed": 4900,
    "Ġcounter": 4901,
    "Ġclaws": 4902,
    "Ġbricks": 4903,
    "ĠFroggy": 4904,
    "Ġingredient": 4905,
    "ĠĊ": 4906,
    "izes": 4907,
    "Surprise": 4908,
    "Ġstrength": 4909,
    "Ġseats": 4910,
    "Ġscratch": 4911,
    "Ġrow": 4912,
    "Ġpetals": 4913,
    "Ġport": 4914,
    "Ġneighbour": 4915,
    "Ġhurting": 4916,
    "Ġgrant": 4917,
    "Ġcutting": 4918,
    "Ġclimbs": 4919,
    "Ġbreathe": 4920,
    "Ġbother": 4921,
    "ĠSqueaky": 4922,
    "ĠPr": 4923,
    "ges": 4924,
    "These": 4925,
    "Alice": 4926,
    "ĠâĢĵ": 4927,
    "Ġtug": 4928,
    "Ġshopkeeper": 4929,
    "Ġraining": 4930,
    "Ġputting": 4931,
    "Ġmenu": 4932,
    "Ġmarriage": 4933,
    "Ġcakes": 4934,
    "Ġbears": 4935,
    "Ġallow": 4936,
    "ĠWho": 4937,
    "ĠSpeedy": 4938,
    "ĠSm": 4939,
    "ĠMittens": 4940,
    "urther": 4941,
    "resses": 4942,
    "Ġworks": 4943,
    "Ġwags": 4944,
    "Ġwaving": 4945,
    "Ġstarting": 4946,
    "Ġsnail": 4947,
    "Ġprinter": 4948,
    "Ġpigs": 4949,
    "Ġingredients": 4950,
    "Ġheel": 4951,
    "Ġforgotten": 4952,
    "Ġexplored": 4953,
    "Ġagre": 4954,
    "Ġadmired": 4955,
    "ĠLola": 4956,
    "ĠGrace": 4957,
    "ĠAlex": 4958,
    "right": 4959,
    "ecially": 4960,
    "Grandma": 4961,
    "Because": 4962,
    "Ġwreck": 4963,
    "Ġwashing": 4964,
    "Ġsoc": 4965,
    "Ġshined": 4966,
    "Ġscoop": 4967,
    "Ġsailing": 4968,
    "Ġplates": 4969,
    "Ġobserve": 4970,
    "Ġjogging": 4971,
    "Ġintroduce": 4972,
    "Ġhon": 4973,
    "Ġfallen": 4974,
    "Ġfurther": 4975,
    "Ġeagerly": 4976,
    "Ġdrops": 4977,
    "Ġdifference": 4978,
    "Ġdaisy": 4979,
    "Ġbalan": 4980,
    "Ġapart": 4981,
    "ĠFinn": 4982,
    "thank": 4983,
    "specially": 4984,
    "atched": 4985,
    "Ġtuna": 4986,
    "Ġstrike": 4987,
    "Ġsoccer": 4988,
    "Ġpup": 4989,
    "Ġfloated": 4990,
    "Ġduring": 4991,
    "Ġblood": 4992,
    "Ġacted": 4993,
    "ĠSharing": 4994,
    "ĠMaggie": 4995,
    "reat": 4996,
    "icer": 4997,
    "eration": 4998,
    "Ġyawn": 4999,
    "Ġworth": 5000,
    "Ġwarning": 5001,
    "Ġwandered": 5002,
    "Ġtong": 5003,
    "Ġstudied": 5004,
    "Ġrul": 5005,
    "Ġplays": 5006,
    "Ġplanted": 5007,
    "Ġmoves": 5008,
    "Ġincrease": 5009,
    "Ġhorses": 5010,
    "Ġhighest": 5011,
    "Ġfolded": 5012,
    "Ġflapped": 5013,
    "Ġespecially": 5014,
    "Ġbuzz": 5015,
    "Ġbeauty": 5016,
    "ĠTilly": 5017,
    "ĠRemember": 5018,
    "ĠNana": 5019,
    "uesday": 5020,
    "shed": 5021,
    "reeze": 5022,
    "quest": 5023,
    "quake": 5024,
    "Bl": 5025,
    "Bella": 5026,
    "..": 5027,
    "Ġwatered": 5028,
    "Ġurge": 5029,
    "Ġshouting": 5030,
    "Ġreaches": 5031,
    "Ġpresents": 5032,
    "Ġoh": 5033,
    "Ġkingdom": 5034,
    "Ġgiven": 5035,
    "Ġfamil": 5036,
    "Ġexamine": 5037,
    "Ġconf": 5038,
    "ĠTuesday": 5039,
    "ĠOwl": 5040,
    "ĠLizzy": 5041,
    "ĠKiki": 5042,
    "ĠEverything": 5043,
    "unately": 5044,
    "raged": 5045,
    "medi": 5046,
    "mediately": 5047,
    "men": 5048,
    "bor": 5049,
    "Fred": 5050,
    "Ella": 5051,
    "Ġuniversity": 5052,
    "Ġtwisted": 5053,
    "Ġsorts": 5054,
    "Ġsolved": 5055,
    "Ġsoak": 5056,
    "Ġsnapped": 5057,
    "Ġslapped": 5058,
    "Ġscolded": 5059,
    "Ġquietly": 5060,
    "Ġlands": 5061,
    "Ġharbor": 5062,
    "Ġgifts": 5063,
    "Ġelephants": 5064,
    "Ġearthquake": 5065,
    "Ġdressed": 5066,
    "Ġbrings": 5067,
    "Ġbak": 5068,
    "ĠSee": 5069,
    "ĠCoco": 5070,
    "ĠCharlie": 5071,
    "omeday": 5072,
    "Leo": 5073,
    "Ġzigzag": 5074,
    "Ġzero": 5075,
    "Ġtongue": 5076,
    "Ġsnugg": 5077,
    "Ġsits": 5078,
    "Ġrequest": 5079,
    "Ġpur": 5080,
    "Ġinst": 5081,
    "Ġhearts": 5082,
    "Ġhadn": 5083,
    "Ġexperience": 5084,
    "Ġcurled": 5085,
    "Ġcrash": 5086,
    "ĠMilly": 5087,
    "ĠDave": 5088,
    "sterday": 5089,
    "sed": 5090,
    "pted": 5091,
    "isses": 5092,
    "esterday": 5093,
    "Everyone": 5094,
    "Emma": 5095,
    "Ġwisdom": 5096,
    "Ġwest": 5097,
    "Ġtrave": 5098,
    "Ġsliding": 5099,
    "Ġplanned": 5100,
    "Ġoranges": 5101,
    "Ġoperation": 5102,
    "Ġmemory": 5103,
    "Ġmister": 5104,
    "Ġkisses": 5105,
    "Ġimage": 5106,
    "Ġcomf": 5107,
    "ĠLe": 5108,
    "ĠKate": 5109,
    "ĠBubbles": 5110,
    "rise": 5111,
    "ipping": 5112,
    "eath": 5113,
    "do": 5114,
    "Ġworse": 5115,
    "Ġtide": 5116,
    "Ġstuffed": 5117,
    "Ġsqueezed": 5118,
    "Ġskills": 5119,
    "Ġsomeday": 5120,
    "Ġsizes": 5121,
    "Ġruler": 5122,
    "Ġprett": 5123,
    "Ġpaused": 5124,
    "Ġlicks": 5125,
    "Ġfields": 5126,
    "Ġbouncy": 5127,
    "Ġattached": 5128,
    "ĠRuby": 5129,
    "ĠGood": 5130,
    "ĠFinny": 5131,
    "ories": 5132,
    "mm": 5133,
    "atie": 5134,
    "aded": 5135,
    "Woof": 5136,
    "'ve": 5137,
    "Ġsuffer": 5138,
    "Ġsorted": 5139,
    "Ġshot": 5140,
    "Ġsince": 5141,
    "Ġrelease": 5142,
    "Ġpulling": 5143,
    "Ġmanage": 5144,
    "Ġmama": 5145,
    "Ġimagination": 5146,
    "Ġideas": 5147,
    "Ġencourage": 5148,
    "Ġcolours": 5149,
    "Ġcatching": 5150,
    "Ġcape": 5151,
    "Ġappear": 5152,
    "Ġaccepted": 5153,
    "ĠAbby": 5154,
    "Today": 5155,
    "Ha": 5156,
    "Ġzookeeper": 5157,
    "Ġwelcomed": 5158,
    "Ġtwirled": 5159,
    "Ġtonight": 5160,
    "Ġpearl": 5161,
    "Ġpeaches": 5162,
    "Ġnews": 5163,
    "Ġmeasured": 5164,
    "Ġmice": 5165,
    "Ġimmediately": 5166,
    "Ġdried": 5167,
    "Ġblankets": 5168,
    "Ġbones": 5169,
    "Ġattention": 5170,
    "ĠToto": 5171,
    "ĠRock": 5172,
    "ĠBop": 5173,
    "yth": 5174,
    "sters": 5175,
    "indy": 5176,
    "ippy": 5177,
    "house": 5178,
    "ction": 5179,
    "With": 5180,
    "Ġwhistling": 5181,
    "Ġwagging": 5182,
    "Ġtucked": 5183,
    "Ġsunrise": 5184,
    "Ġspike": 5185,
    "Ġsettled": 5186,
    "Ġseason": 5187,
    "Ġrabbits": 5188,
    "Ġpeanuts": 5189,
    "Ġmelted": 5190,
    "Ġleather": 5191,
    "Ġgrowled": 5192,
    "Ġclosely": 5193,
    "Ġcelebrated": 5194,
    "Ġcalls": 5195,
    "ĠSky": 5196,
    "ĠRos": 5197,
    "ĠPip": 5198,
    "ĠMillie": 5199,
    "ĠGeorge": 5200,
    "ĠBefore": 5201,
    "ĠBee": 5202,
    "ups": 5203,
    "ored": 5204,
    "ips": 5205,
    "etch": 5206,
    "cery": 5207,
    "Remy": 5208,
    "Ġwinning": 5209,
    "Ġtastes": 5210,
    "Ġstealing": 5211,
    "Ġsi": 5212,
    "Ġremained": 5213,
    "Ġrecognize": 5214,
    "Ġreceive": 5215,
    "Ġquack": 5216,
    "Ġours": 5217,
    "Ġmarried": 5218,
    "Ġgrocery": 5219,
    "Ġglo": 5220,
    "Ġfireman": 5221,
    "Ġdownstairs": 5222,
    "Ġdisagreed": 5223,
    "Ġdresses": 5224,
    "Ġble": 5225,
    "ĠZara": 5226,
    "ĠMo": 5227,
    "ĠHo": 5228,
    "walk": 5229,
    "unday": 5230,
    "rank": 5231,
    "ising": 5232,
    "fortunately": 5233,
    "Blue": 5234,
    "Ġzipped": 5235,
    "Ġwooden": 5236,
    "Ġunderstanding": 5237,
    "Ġtremb": 5238,
    "Ġtore": 5239,
    "Ġtoes": 5240,
    "Ġsurround": 5241,
    "Ġstro": 5242,
    "Ġstirring": 5243,
    "Ġsoaked": 5244,
    "Ġsnuggled": 5245,
    "Ġsidewalk": 5246,
    "Ġshed": 5247,
    "Ġsafari": 5248,
    "Ġpunished": 5249,
    "Ġpalm": 5250,
    "Ġmemories": 5251,
    "Ġlips": 5252,
    "Ġinf": 5253,
    "Ġgloves": 5254,
    "Ġemer": 5255,
    "Ġeasier": 5256,
    "Ġbang": 5257,
    "ĠWally": 5258,
    "ĠSteve": 5259,
    "ĠSunday": 5260,
    "ĠPat": 5261,
    "ĠHope": 5262,
    "ĠClara": 5263,
    "ythm": 5264,
    "icky": 5265,
    "icing": 5266,
    "ddy": 5267,
    "ding": 5268,
    "Bird": 5269,
    "Ġuniverse": 5270,
    "Ġstraight": 5271,
    "Ġsnowball": 5272,
    "Ġseeing": 5273,
    "Ġrang": 5274,
    "Ġpotatoes": 5275,
    "Ġisn": 5276,
    "Ġhits": 5277,
    "Ġencouraged": 5278,
    "Ġcreatures": 5279,
    "Ġcollection": 5280,
    "Ġbreaking": 5281,
    "Ġbackpack": 5282,
    "Ġbaked": 5283,
    "ĠRed": 5284,
    "ĠFox": 5285,
    "ĠDanny": 5286,
    "rr": 5287,
    "ops": 5288,
    "ien": 5289,
    "Peter": 5290,
    "Ok": 5291,
    "Ġtrembling": 5292,
    "Ġringing": 5293,
    "Ġraised": 5294,
    "Ġpirates": 5295,
    "Ġpedal": 5296,
    "Ġoffer": 5297,
    "Ġlung": 5298,
    "Ġgrin": 5299,
    "Ġgazed": 5300,
    "Ġfloating": 5301,
    "Ġflap": 5302,
    "Ġacorns": 5303,
    "ĠSuzy": 5304,
    "ĠSmith": 5305,
    "ĠRay": 5306,
    "ĠJess": 5307,
    "ĠHenry": 5308,
    "ĠAva": 5309,
    "sing": 5310,
    "ites": 5311,
    "isdom": 5312,
    "eep": 5313,
    "bles": 5314,
    "aped": 5315,
    "abies": 5316,
    "Lisa": 5317,
    "Ġwaits": 5318,
    "Ġwob": 5319,
    "Ġunlocked": 5320,
    "Ġspit": 5321,
    "Ġshouldn": 5322,
    "Ġshopping": 5323,
    "Ġrelaxed": 5324,
    "Ġpebbles": 5325,
    "Ġpad": 5326,
    "Ġmuscles": 5327,
    "Ġlandsc": 5328,
    "Ġkites": 5329,
    "Ġkicking": 5330,
    "Ġinclude": 5331,
    "Ġhers": 5332,
    "Ġflat": 5333,
    "Ġfireworks": 5334,
    "Ġfiref": 5335,
    "Ġcrawling": 5336,
    "Ġbrus": 5337,
    "Ġbites": 5338,
    "Ġbabies": 5339,
    "Ġalright": 5340,
    "ĠEach": 5341,
    "ĠBaby": 5342,
    "orted": 5343,
    "igging": 5344,
    "icorn": 5345,
    "Would": 5346,
    "Ġweb": 5347,
    "Ġwatches": 5348,
    "Ġunicorn": 5349,
    "Ġsimp": 5350,
    "Ġfamilies": 5351,
    "Ġdared": 5352,
    "Ġbrain": 5353,
    "Ġbleed": 5354,
    "Ġappro": 5355,
    "ĠZigzag": 5356,
    "ĠRobby": 5357,
    "ĠMandy": 5358,
    "ĠFollow": 5359,
    "ther": 5360,
    "kins": 5361,
    "ids": 5362,
    "ety": 5363,
    "allen": 5364,
    "Momo": 5365,
    "Ġvisited": 5366,
    "Ġtallest": 5367,
    "Ġsneak": 5368,
    "Ġshadows": 5369,
    "Ġsafety": 5370,
    "Ġresting": 5371,
    "Ġpetted": 5372,
    "Ġopin": 5373,
    "Ġmouths": 5374,
    "Ġmatched": 5375,
    "Ġkneeled": 5376,
    "Ġkeeps": 5377,
    "Ġkitty": 5378,
    "Ġinstr": 5379,
    "Ġgirls": 5380,
    "Ġexit": 5381,
    "Ġdrinking": 5382,
    "Ġdigging": 5383,
    "Ġchewing": 5384,
    "Ġchallen": 5385,
    "Ġbeds": 5386,
    "Ġbreeze": 5387,
    "ĠSun": 5388,
    "ĠRosie": 5389,
    "ĠJames": 5390,
    "umes": 5391,
    "uzz": 5392,
    "rec": 5393,
    "lvet": 5394,
    "ler": 5395,
    "ishy": 5396,
    "ishing": 5397,
    "elle": 5398,
    "Ġweeping": 5399,
    "Ġweighed": 5400,
    "Ġvelvet": 5401,
    "Ġvet": 5402,
    "Ġunderground": 5403,
    "Ġstudying": 5404,
    "Ġstitch": 5405,
    "Ġsilence": 5406,
    "Ġserved": 5407,
    "Ġplaytime": 5408,
    "Ġpiles": 5409,
    "Ġordered": 5410,
    "Ġnone": 5411,
    "Ġmuddy": 5412,
    "Ġlaid": 5413,
    "Ġlined": 5414,
    "Ġdisagree": 5415,
    "Ġcartoons": 5416,
    "Ġamazement": 5417,
    "ĠZoe": 5418,
    "ĠThese": 5419,
    "ĠSlow": 5420,
    "ĠMaria": 5421,
    "ĠMel": 5422,
    "ĠKing": 5423,
    "reci": 5424,
    "oral": 5425,
    "chie": 5426,
    "avid": 5427,
    "Tr": 5428,
    "!\",": 5429,
    "!'": 5430,
    "Ġwinner": 5431,
    "Ġvanish": 5432,
    "Ġtwink": 5433,
    "Ġtreasures": 5434,
    "Ġspoons": 5435,
    "Ġsigns": 5436,
    "Ġsetting": 5437,
    "Ġroots": 5438,
    "Ġroads": 5439,
    "Ġrepeated": 5440,
    "Ġnowhere": 5441,
    "Ġnapping": 5442,
    "Ġmixing": 5443,
    "Ġlick": 5444,
    "Ġlandscape": 5445,
    "Ġgust": 5446,
    "Ġcrunch": 5447,
    "Ġcostumes": 5448,
    "Ġbye": 5449,
    "Ġappreci": 5450,
    "ĠSomething": 5451,
    "ĠNot": 5452,
    "ĠLucky": 5453,
    "rs": 5454,
    "oved": 5455,
    "izing": 5456,
    "coon": 5457,
    "aved": 5458,
    "Yum": 5459,
    "Thanks": 5460,
    "Johnny": 5461,
    "Bobby": 5462,
    ".'": 5463,
    "Ġvoices": 5464,
    "Ġurged": 5465,
    "Ġstrang": 5466,
    "Ġsisters": 5467,
    "Ġsausages": 5468,
    "Ġsix": 5469,
    "Ġsip": 5470,
    "Ġrhythm": 5471,
    "Ġpinched": 5472,
    "Ġpets": 5473,
    "Ġperfectly": 5474,
    "Ġjazz": 5475,
    "Ġimportance": 5476,
    "Ġhappiest": 5477,
    "Ġemergen": 5478,
    "Ġdecorations": 5479,
    "Ġdecorated": 5480,
    "ĠWisdom": 5481,
    "ĠTony": 5482,
    "ĠLater": 5483,
    "ĠBouncy": 5484,
    "ĠBree": 5485,
    "ĠQu": 5486,
    "umble": 5487,
    "shion": 5488,
    "oys": 5489,
    "Sp": 5490,
    "Ġwaist": 5491,
    "Ġwink": 5492,
    "Ġresult": 5493,
    "Ġprepared": 5494,
    "Ġpatterns": 5495,
    "Ġpra": 5496,
    "Ġmentioned": 5497,
    "Ġlets": 5498,
    "Ġlily": 5499,
    "Ġknights": 5500,
    "Ġinfant": 5501,
    "Ġguessed": 5502,
    "Ġfashion": 5503,
    "Ġdraws": 5504,
    "Ġdire": 5505,
    "Ġclearing": 5506,
    "Ġagreement": 5507,
    "ĠTed": 5508,
    "ĠPeanut": 5509,
    "ĠOut": 5510,
    "ĠHarry": 5511,
    "ssible": 5512,
    "plash": 5513,
    "oming": 5514,
    "isten": 5515,
    "irts": 5516,
    "iers": 5517,
    "hello": 5518,
    "ena": 5519,
    "Sammy": 5520,
    "Happy": 5521,
    "Dog": 5522,
    "Ġwaffles": 5523,
    "Ġturning": 5524,
    "Ġthrill": 5525,
    "Ġstrangers": 5526,
    "Ġsprink": 5527,
    "Ġscru": 5528,
    "Ġpoems": 5529,
    "Ġphot": 5530,
    "Ġourselves": 5531,
    "Ġnoon": 5532,
    "Ġmoments": 5533,
    "Ġmarks": 5534,
    "Ġknown": 5535,
    "Ġhurried": 5536,
    "Ġescaped": 5537,
    "Ġeagle": 5538,
    "Ġcrunchy": 5539,
    "Ġbeard": 5540,
    "Ġadmir": 5541,
    "ĠLiz": 5542,
    "ĠFrank": 5543,
    "ĠBoth": 5544,
    "zen": 5545,
    "ship": 5546,
    "please": 5547,
    "ities": 5548,
    "antly": 5549,
    "Sophie": 5550,
    "Moral": 5551,
    "Jen": 5552,
    "Emily": 5553,
    "Ġspending": 5554,
    "Ġsoldiers": 5555,
    "Ġruin": 5556,
    "Ġripped": 5557,
    "Ġpillows": 5558,
    "Ġpeel": 5559,
    "Ġlogs": 5560,
    "Ġlimes": 5561,
    "Ġgrinned": 5562,
    "Ġgran": 5563,
    "Ġgoals": 5564,
    "Ġfrozen": 5565,
    "Ġforgi": 5566,
    "Ġfetch": 5567,
    "Ġexpected": 5568,
    "Ġdisturbed": 5569,
    "Ġcuddled": 5570,
    "Ġcrashed": 5571,
    "Ġbravely": 5572,
    "Ġbrid": 5573,
    "Ġbowed": 5574,
    "Ġbehaved": 5575,
    "Ġapologized": 5576,
    "ĠWatch": 5577,
    "ĠPrin": 5578,
    "ĠCar": 5579,
    "vest": 5580,
    "uddles": 5581,
    "tory": 5582,
    "ishes": 5583,
    "ived": 5584,
    "ded": 5585,
    "acob": 5586,
    "Cat": 5587,
    "Ġstruggle": 5588,
    "Ġphotos": 5589,
    "Ġmatching": 5590,
    "Ġlines": 5591,
    "Ġknelt": 5592,
    "Ġhistory": 5593,
    "Ġguy": 5594,
    "Ġgained": 5595,
    "Ġfishing": 5596,
    "Ġemergency": 5597,
    "Ġdads": 5598,
    "Ġcollecting": 5599,
    "Ġbeneath": 5600,
    "ĠJoey": 5601,
    "ĠDid": 5602,
    "ĠCuddles": 5603,
    "xture": 5604,
    "ud": 5605,
    "omas": 5606,
    "ctly": 5607,
    "choo": 5608,
    "arth": 5609,
    "Watch": 5610,
    "Goodbye": 5611,
    "Ġwondering": 5612,
    "Ġwarmth": 5613,
    "Ġtrapped": 5614,
    "Ġtexture": 5615,
    "Ġsore": 5616,
    "Ġsoared": 5617,
    "Ġslice": 5618,
    "Ġskipping": 5619,
    "Ġrested": 5620,
    "Ġresp": 5621,
    "Ġpies": 5622,
    "Ġmeow": 5623,
    "Ġitem": 5624,
    "Ġhes": 5625,
    "Ġdrinks": 5626,
    "Ġdragons": 5627,
    "Ġcollected": 5628,
    "Ġchallenge": 5629,
    "Ġburning": 5630,
    "Ġbuildings": 5631,
    "Ġbridges": 5632,
    "Ġbegged": 5633,
    "Ġbeat": 5634,
    "Ġanswers": 5635,
    "ĠRocky": 5636,
    "ĠJosh": 5637,
    "ĠIts": 5638,
    "ĠHop": 5639,
    "ales": 5640,
    "Ducky": 5641,
    "Andy": 5642,
    "Ġwiggle": 5643,
    "Ġthreat": 5644,
    "Ġstamps": 5645,
    "Ġsimple": 5646,
    "Ġscreams": 5647,
    "Ġscratched": 5648,
    "Ġscaring": 5649,
    "Ġpraised": 5650,
    "Ġopinion": 5651,
    "Ġlied": 5652,
    "Ġkindly": 5653,
    "Ġcrabs": 5654,
    "Ġapproached": 5655,
    "Ġago": 5656,
    "ĠSof": 5657,
    "ĠHappy": 5658,
    "ĠBug": 5659,
    "ĠBo": 5660,
    "utter": 5661,
    "ury": 5662,
    "iti": 5663,
    "ica": 5664,
    "hind": 5665,
    "emb": 5666,
    "bug": 5667,
    "akes": 5668,
    "Miss": 5669,
    "Ġwonders": 5670,
    "Ġtwigs": 5671,
    "Ġtheirs": 5672,
    "Ġteasing": 5673,
    "Ġsparkling": 5674,
    "Ġscrubbed": 5675,
    "Ġolives": 5676,
    "Ġneighborhood": 5677,
    "Ġladybug": 5678,
    "Ġgolden": 5679,
    "Ġgathering": 5680,
    "Ġeast": 5681,
    "Ġcomfy": 5682,
    "Ġbrushed": 5683,
    "Ġboom": 5684,
    "Ġblink": 5685,
    "ĠStop": 5686,
    "ĠStitch": 5687,
    "ĠKatie": 5688,
    "zing": 5689,
    "vestig": 5690,
    "mare": 5691,
    "lier": 5692,
    "ino": 5693,
    "embers": 5694,
    "bbing": 5695,
    "Really": 5696,
    "Eventually": 5697,
    "Benny": 5698,
    "Ġteaches": 5699,
    "Ġtim": 5700,
    "Ġstrings": 5701,
    "Ġsting": 5702,
    "Ġslim": 5703,
    "Ġshoulders": 5704,
    "Ġropes": 5705,
    "Ġremembers": 5706,
    "Ġnightmare": 5707,
    "Ġmuffins": 5708,
    "Ġjoking": 5709,
    "Ġinvestig": 5710,
    "Ġherbs": 5711,
    "Ġgranted": 5712,
    "Ġgaze": 5713,
    "Ġfed": 5714,
    "Ġeff": 5715,
    "Ġcopy": 5716,
    "Ġbroom": 5717,
    "Ġbeamed": 5718,
    "Ġann": 5719,
    "ĠLou": 5720,
    "ĠDare": 5721,
    "ĠCatty": 5722,
    "ĠBeing": 5723,
    "wh": 5724,
    "urry": 5725,
    "uest": 5726,
    "riends": 5727,
    "osed": 5728,
    "ogo": 5729,
    "anny": 5730,
    "ados": 5731,
    "Sandy": 5732,
    "Poppy": 5733,
    "Mmm": 5734,
    "Ġzooming": 5735,
    "Ġwrites": 5736,
    "Ġtwin": 5737,
    "Ġtrips": 5738,
    "Ġthrilled": 5739,
    "Ġswims": 5740,
    "Ġsparkle": 5741,
    "Ġsneaked": 5742,
    "Ġslimy": 5743,
    "Ġshock": 5744,
    "Ġroaring": 5745,
    "Ġrefu": 5746,
    "Ġrecorded": 5747,
    "Ġreceived": 5748,
    "Ġpencils": 5749,
    "Ġpedals": 5750,
    "Ġparties": 5751,
    "Ġmarching": 5752,
    "Ġloose": 5753,
    "Ġinvestigate": 5754,
    "Ġhissed": 5755,
    "Ġheaded": 5756,
    "Ġhardly": 5757,
    "Ġgrey": 5758,
    "Ġglowed": 5759,
    "Ġeats": 5760,
    "Ġdoggy": 5761,
    "Ġdot": 5762,
    "Ġcubes": 5763,
    "Ġcreated": 5764,
    "Ġbrushes": 5765,
    "Ġavocados": 5766,
    "Ġargued": 5767,
    "Ġalien": 5768,
    "Ġairpl": 5769,
    "Ġactiv": 5770,
    "Ġawe": 5771,
    "ĠSparky": 5772,
    "ĠSomeone": 5773,
    "ĠPinky": 5774,
    "ĠMissile": 5775,
    "ĠMay": 5776,
    "ĠIzzy": 5777,
    "ĠHenny": 5778,
    "ĠAlways": 5779,
    "xury": 5780,
    "ulie": 5781,
    "uxury": 5782,
    "uke": 5783,
    "ppers": 5784,
    "mother": 5785,
    "iam": 5786,
    "elvet": 5787,
    "araway": 5788,
    "allow": 5789,
    "ah": 5790,
    "Un": 5791,
    "ĠâĢĺ": 5792,
    "Ġyouth": 5793,
    "Ġwears": 5794,
    "Ġwed": 5795,
    "Ġtraveled": 5796,
    "Ġtugged": 5797,
    "Ġsweeties": 5798,
    "Ġsupposed": 5799,
    "Ġstudents": 5800,
    "Ġstretching": 5801,
    "Ġsticking": 5802,
    "Ġsteep": 5803,
    "Ġscreaming": 5804,
    "Ġremoved": 5805,
    "Ġremote": 5806,
    "Ġradishes": 5807,
    "Ġpots": 5808,
    "Ġnicer": 5809,
    "Ġmountains": 5810,
    "Ġmelting": 5811,
    "Ġmarbles": 5812,
    "Ġmaster": 5813,
    "Ġloving": 5814,
    "Ġleader": 5815,
    "Ġkeeper": 5816,
    "Ġjewels": 5817,
    "Ġinch": 5818,
    "Ġhealed": 5819,
    "Ġguest": 5820,
    "Ġfaraway": 5821,
    "Ġeffort": 5822,
    "Ġdestination": 5823,
    "Ġdecides": 5824,
    "Ġchirped": 5825,
    "Ġcheering": 5826,
    "Ġcrow": 5827,
    "Ġbalancing": 5828,
    "Ġarea": 5829,
    "ĠTw": 5830,
    "ĠTiti": 5831,
    "ĠSqu": 5832,
    "ĠSplash": 5833,
    "ĠFirst": 5834,
    "ĠDodo": 5835,
    "ĠCindy": 5836,
    "ĠAnnie": 5837,
    "âĢĿ.": 5838,
    "osity": 5839,
    "loe": 5840,
    "ission": 5841,
    "hee": 5842,
    "True": 5843,
    "Time": 5844,
    "Shh": 5845,
    "Ollie": 5846,
    "James": 5847,
    "Cl": 5848,
    "Ġyelling": 5849,
    "Ġtricked": 5850,
    "Ġstripes": 5851,
    "Ġsnakes": 5852,
    "Ġsled": 5853,
    "Ġsitu": 5854,
    "Ġrevealed": 5855,
    "Ġrealize": 5856,
    "Ġpraying": 5857,
    "Ġprop": 5858,
    "Ġpolished": 5859,
    "Ġowned": 5860,
    "Ġmonsters": 5861,
    "Ġhated": 5862,
    "Ġhitting": 5863,
    "Ġdeser": 5864,
    "Ġdelivered": 5865,
    "Ġclaps": 5866,
    "Ġcough": 5867,
    "Ġbuckets": 5868,
    "ĠSad": 5869,
    "ĠMoon": 5870,
    "ĠMon": 5871,
    "ĠCra": 5872,
    "ĠYes": 5873,
    "jam": 5874,
    "boo": 5875,
    "aws": 5876,
    "avi": 5877,
    "agull": 5878,
    "affes": 5879,
    "Ex": 5880,
    "Boo": 5881,
    "Ġwherever": 5882,
    "Ġtickle": 5883,
    "Ġtalent": 5884,
    "Ġstaying": 5885,
    "Ġseems": 5886,
    "Ġsecrets": 5887,
    "Ġseagull": 5888,
    "Ġsafer": 5889,
    "Ġprovided": 5890,
    "Ġpermission": 5891,
    "Ġparked": 5892,
    "Ġopening": 5893,
    "Ġmeasuring": 5894,
    "Ġmane": 5895,
    "Ġluxury": 5896,
    "Ġgiraffes": 5897,
    "Ġfrost": 5898,
    "Ġfears": 5899,
    "Ġfaced": 5900,
    "Ġearlier": 5901,
    "Ġcuts": 5902,
    "Ġcontinue": 5903,
    "Ġcomplaining": 5904,
    "Ġcrew": 5905,
    "Ġbeside": 5906,
    "Ġbakery": 5907,
    "ĠVelvet": 5908,
    "ĠTuna": 5909,
    "ĠJacob": 5910,
    "ĠChicky": 5911,
    "ĠBoo": 5912,
    "ĠAn": 5913,
    "ĠOnce": 5914,
    "Ġ1": 5915,
    "usty": 5916,
    "ues": 5917,
    "mies": 5918,
    "isty": 5919,
    "int": 5920,
    "ifi": 5921,
    "ha": 5922,
    "esome": 5923,
    "cus": 5924,
    "anging": 5925,
    "Rob": 5926,
    "Ro": 5927,
    "Rex": 5928,
    "Meow": 5929,
    "'.": 5930,
    "Ġwindy": 5931,
    "Ġtouching": 5932,
    "Ġtails": 5933,
    "Ġsweat": 5934,
    "Ġstruggled": 5935,
    "Ġshooting": 5936,
    "Ġrule": 5937,
    "Ġrefuse": 5938,
    "Ġrele": 5939,
    "Ġpupil": 5940,
    "Ġproper": 5941,
    "Ġpans": 5942,
    "Ġpaints": 5943,
    "Ġmagnets": 5944,
    "Ġhorns": 5945,
    "Ġheroes": 5946,
    "Ġfeeding": 5947,
    "Ġdusty": 5948,
    "Ġdiscovery": 5949,
    "Ġdarker": 5950,
    "Ġcandies": 5951,
    "Ġbleeding": 5952,
    "Ġbare": 5953,
    "Ġawesome": 5954,
    "Ġadmiring": 5955,
    "Ġactually": 5956,
    "Ġactions": 5957,
    "Ġacting": 5958,
    "ĠEarth": 5959,
    "ĠDuck": 5960,
    "ĠDavid": 5961,
    "uckily": 5962,
    "quid": 5963,
    "pie": 5964,
    "ouch": 5965,
    "ora": 5966,
    "ners": 5967,
    "ls": 5968,
    "iar": 5969,
    "dies": 5970,
    "anta": 5971,
    "aster": 5972,
    "Stay": 5973,
    "Jo": 5974,
    "Ġweeks": 5975,
    "Ġwedding": 5976,
    "Ġwasted": 5977,
    "Ġwanting": 5978,
    "Ġwiz": 5979,
    "Ġvalued": 5980,
    "Ġvict": 5981,
    "Ġtwisty": 5982,
    "Ġtune": 5983,
    "Ġtoss": 5984,
    "Ġtimer": 5985,
    "Ġteamwork": 5986,
    "Ġsurrounded": 5987,
    "Ġstruggling": 5988,
    "Ġspraying": 5989,
    "Ġspaceship": 5990,
    "Ġsneaky": 5991,
    "Ġshrug": 5992,
    "Ġrestored": 5993,
    "Ġprettiest": 5994,
    "Ġpatiently": 5995,
    "Ġonwards": 5996,
    "Ġobe": 5997,
    "Ġneighbourhood": 5998,
    "Ġneighbors": 5999,
    "Ġliquid": 6000,
    "Ġhesit": 6001,
    "Ġhelmets": 6002,
    "Ġglasses": 6003,
    "Ġfoods": 6004,
    "Ġflags": 6005,
    "Ġdinosaurs": 6006,
    "Ġdied": 6007,
    "Ġcreation": 6008,
    "Ġcontest": 6009,
    "Ġcontain": 6010,
    "Ġcompany": 6011,
    "Ġbedtime": 6012,
    "Ġawake": 6013,
    "ĠWater": 6014,
    "ĠRover": 6015,
    "ĠRe": 6016,
    "ĠKids": 6017,
    "ĠDino": 6018,
    "ĠBye": 6019,
    "screen": 6020,
    "rian": 6021,
    "lee": 6022,
    "go": 6023,
    "enty": 6024,
    "compl": 6025,
    "band": 6026,
    "ashed": 6027,
    "amie": 6028,
    "ads": 6029,
    "Tiny": 6030,
    "George": 6031,
    "Ew": 6032,
    "Ġworker": 6033,
    "Ġsucceeded": 6034,
    "Ġstare": 6035,
    "Ġsights": 6036,
    "Ġsiren": 6037,
    "Ġscooters": 6038,
    "Ġsings": 6039,
    "Ġrecognized": 6040,
    "Ġquacked": 6041,
    "Ġproject": 6042,
    "Ġpride": 6043,
    "Ġpolishing": 6044,
    "Ġpoking": 6045,
    "Ġpaying": 6046,
    "Ġpaintings": 6047,
    "Ġobey": 6048,
    "Ġloaded": 6049,
    "Ġinsist": 6050,
    "Ġglitter": 6051,
    "Ġfrosting": 6052,
    "Ġcrept": 6053,
    "Ġchef": 6054,
    "Ġcatches": 6055,
    "Ġbloomed": 6056,
    "Ġappreciate": 6057,
    "Ġachie": 6058,
    "ĠSpring": 6059,
    "ĠSlowly": 6060,
    "ĠSanta": 6061,
    "ĠQuick": 6062,
    "ĠLike": 6063,
    "ĠKeep": 6064,
    "ĠKay": 6065,
    "ĠX": 6066,
    "ulp": 6067,
    "uffin": 6068,
    "uctions": 6069,
    "scin": 6070,
    "nie": 6071,
    "ays": 6072,
    "Whiskers": 6073,
    "Remember": 6074,
    "Pete": 6075,
    "Paul": 6076,
    "Mrs": 6077,
    "During": 6078,
    "...\"": 6079,
    "Ġtraded": 6080,
    "Ġthud": 6081,
    "Ġsplashes": 6082,
    "Ġsighs": 6083,
    "Ġseven": 6084,
    "Ġscooped": 6085,
    "Ġscattering": 6086,
    "Ġribbons": 6087,
    "Ġrescued": 6088,
    "Ġprec": 6089,
    "Ġpenguins": 6090,
    "Ġpears": 6091,
    "Ġpeppers": 6092,
    "Ġpatience": 6093,
    "Ġpassports": 6094,
    "Ġnails": 6095,
    "Ġmittens": 6096,
    "Ġmes": 6097,
    "Ġinstructions": 6098,
    "Ġhonk": 6099,
    "Ġhi": 6100,
    "Ġguys": 6101,
    "Ġflutter": 6102,
    "Ġflav": 6103,
    "Ġfascin": 6104,
    "Ġeight": 6105,
    "Ġdiving": 6106,
    "Ġdemanded": 6107,
    "Ġcushions": 6108,
    "Ġcones": 6109,
    "Ġcomple": 6110,
    "Ġcomm": 6111,
    "Ġcelebration": 6112,
    "Ġbringing": 6113,
    "Ġblows": 6114,
    "Ġblooming": 6115,
    "Ġbeads": 6116,
    "Ġbalanced": 6117,
    "Ġairplane": 6118,
    "Ġaccompl": 6119,
    "ĠLuke": 6120,
    "ĠLenny": 6121,
    "ĠJessie": 6122,
    "ĠFrog": 6123,
    "ĠFifi": 6124,
    "ĠEveryday": 6125,
    "ĠDr": 6126,
    "ĠBlink": 6127,
    "ĠAlly": 6128,
    "zie": 6129,
    "ults": 6130,
    "uctantly": 6131,
    "lets": 6132,
    "lict": 6133,
    "iggy": 6134,
    "die": 6135,
    "big": 6136,
    "Zoomy": 6137,
    "Uh": 6138,
    "Our": 6139,
    "Luna": 6140,
    "Jake": 6141,
    "Have": 6142,
    "Fo": 6143,
    "First": 6144,
    "Bad": 6145,
    "Achoo": 6146,
    "Ġwizard": 6147,
    "Ġvisiting": 6148,
    "Ġvillag": 6149,
    "Ġusual": 6150,
    "Ġuntie": 6151,
    "Ġunf": 6152,
    "Ġtodd": 6153,
    "Ġstarfish": 6154,
    "Ġscales": 6155,
    "Ġsadness": 6156,
    "Ġreminder": 6157,
    "Ġrefre": 6158,
    "Ġpurred": 6159,
    "Ġprotecting": 6160,
    "Ġprotected": 6161,
    "Ġpause": 6162,
    "Ġorganizing": 6163,
    "Ġofficer": 6164,
    "Ġoat": 6165,
    "Ġmission": 6166,
    "Ġlearns": 6167,
    "Ġlaying": 6168,
    "Ġhomework": 6169,
    "Ġgoodnight": 6170,
    "Ġfroze": 6171,
    "Ġexplorers": 6172,
    "Ġexamined": 6173,
    "Ġdrives": 6174,
    "Ġconflict": 6175,
    "Ġbaker": 6176,
    "Ġbackward": 6177,
    "Ġboo": 6178,
    "Ġapplauded": 6179,
    "Ġapologize": 6180,
    "ĠMuffin": 6181,
    "ĠLeave": 6182,
    "ĠGogo": 6183,
    "ĠFriends": 6184,
    "ĠBehind": 6185,
    "step": 6186,
    "rance": 6187,
    "ords": 6188,
    "jo": 6189,
    "iders": 6190,
    "ern": 6191,
    "bigail": 6192,
    "bbled": 6193,
    "bl": 6194,
    "arter": 6195,
    "actly": 6196,
    "aa": 6197,
    "Tweet": 6198,
    "Somet": 6199,
    "Ġyesterday": 6200,
    "Ġwins": 6201,
    "Ġwhatever": 6202,
    "Ġwound": 6203,
    "Ġvictory": 6204,
    "Ġtoddler": 6205,
    "Ġstruck": 6206,
    "Ġspikes": 6207,
    "Ġspells": 6208,
    "Ġsmiley": 6209,
    "Ġsmallest": 6210,
    "Ġsmarter": 6211,
    "Ġshivered": 6212,
    "Ġrides": 6213,
    "Ġreleased": 6214,
    "Ġreluctantly": 6215,
    "Ġrecording": 6216,
    "Ġprettier": 6217,
    "Ġplanets": 6218,
    "Ġpastels": 6219,
    "Ġmuscle": 6220,
    "Ġleading": 6221,
    "Ġhelpers": 6222,
    "Ġguns": 6223,
    "Ġfirefight": 6224,
    "Ġfigures": 6225,
    "Ġdragged": 6226,
    "Ġdipped": 6227,
    "Ġcracked": 6228,
    "Ġchanging": 6229,
    "Ġcause": 6230,
    "Ġbarely": 6231,
    "ĠYesterday": 6232,
    "ĠThomas": 6233,
    "ĠPippa": 6234,
    "ĠPepper": 6235,
    "ĠMoo": 6236,
    "ĠLove": 6237,
    "ĠJessica": 6238,
    "ĠJenna": 6239,
    "ĠHopper": 6240,
    "ĠGreen": 6241,
    "ĠGr": 6242,
    "ĠGet": 6243,
    "ĠElephant": 6244,
    "ĠChloe": 6245,
    "ĠBeep": 6246,
    "ĠAm": 6247,
    "ĠQ": 6248,
    "nies": 6249,
    "jamas": 6250,
    "ho": 6251,
    "anna": 6252,
    "Teddy": 6253,
    "Ste": 6254,
    "Silly": 6255,
    "Millie": 6256,
    "Jerry": 6257,
    "Grandpa": 6258,
    "An": 6259,
    "Ġwarnings": 6260,
    "Ġvent": 6261,
    "Ġunited": 6262,
    "Ġsunlight": 6263,
    "Ġstole": 6264,
    "Ġstern": 6265,
    "Ġsprinkles": 6266,
    "Ġshirts": 6267,
    "Ġrockets": 6268,
    "Ġreply": 6269,
    "Ġrings": 6270,
    "Ġprecious": 6271,
    "Ġpacking": 6272,
    "Ġinviting": 6273,
    "Ġhugging": 6274,
    "Ġfiremen": 6275,
    "Ġexactly": 6276,
    "Ġdelivering": 6277,
    "Ġdie": 6278,
    "Ġdam": 6279,
    "Ġcovers": 6280,
    "Ġclick": 6281,
    "Ġcous": 6282,
    "Ġbuzzing": 6283,
    "Ġbowls": 6284,
    "Ġbehavi": 6285,
    "Ġbecoming": 6286,
    "Ġbank": 6287,
    "Ġanytime": 6288,
    "Ġannoy": 6289,
    "ĠSquirrel": 6290,
    "ĠSure": 6291,
    "ĠRobert": 6292,
    "ĠRollie": 6293,
    "ĠRabbit": 6294,
    "ĠPrincess": 6295,
    "ĠMeg": 6296,
    "ĠMarie": 6297,
    "ĠHippy": 6298,
    "ĠGir": 6299,
    "ĠChew": 6300,
    "ĠBetsy": 6301,
    "ueen": 6302,
    "uly": 6303,
    "rink": 6304,
    "irm": 6305,
    "iding": 6306,
    "guing": 6307,
    "fied": 6308,
    "eah": 6309,
    "bly": 6310,
    "Unfortunately": 6311,
    "Su": 6312,
    "Oops": 6313,
    "Milly": 6314,
    "Ah": 6315,
    "Ġwraps": 6316,
    "Ġwiggled": 6317,
    "Ġwhose": 6318,
    "Ġweren": 6319,
    "Ġwid": 6320,
    "Ġvillagers": 6321,
    "Ġvines": 6322,
    "Ġtickets": 6323,
    "Ġsports": 6324,
    "Ġsparkles": 6325,
    "Ġsnowballs": 6326,
    "Ġsituation": 6327,
    "Ġseparated": 6328,
    "Ġsending": 6329,
    "Ġsense": 6330,
    "Ġrefle": 6331,
    "Ġquarreling": 6332,
    "Ġprincesses": 6333,
    "Ġpossible": 6334,
    "Ġpeered": 6335,
    "Ġpeas": 6336,
    "Ġpajamas": 6337,
    "Ġpins": 6338,
    "Ġmisses": 6339,
    "Ġmasks": 6340,
    "Ġjoked": 6341,
    "Ġintroduc": 6342,
    "Ġgotten": 6343,
    "Ġfault": 6344,
    "Ġcuddle": 6345,
    "Ġcomplained": 6346,
    "Ġcocoon": 6347,
    "Ġchips": 6348,
    "Ġarrive": 6349,
    "Ġarguing": 6350,
    "Ġactivities": 6351,
    "ĠUnfortunately": 6352,
    "ĠTurtle": 6353,
    "ĠTop": 6354,
    "ĠStar": 6355,
    "ĠRobo": 6356,
    "ĠQueen": 6357,
    "ĠPo": 6358,
    "ĠJoy": 6359,
    "ĠJilly": 6360,
    "ĠHor": 6361,
    "ĠDara": 6362,
    "ĠBuggy": 6363,
    "ĠBy": 6364,
    "ĠBecause": 6365,
    "rey": 6366,
    "dam": 6367,
    "cuse": 6368,
    "bric": 6369,
    "atches": 6370,
    "anie": 6371,
    "Ru": 6372,
    "Or": 6373,
    "Mar": 6374,
    "Mandy": 6375,
    "Lilly": 6376,
    "Dave": 6377,
    "Buzz": 6378,
    "Ġyells": 6379,
    "Ġwidened": 6380,
    "Ġwoof": 6381,
    "Ġtwirl": 6382,
    "Ġtricky": 6383,
    "Ġtravell": 6384,
    "Ġtractor": 6385,
    "Ġtruly": 6386,
    "Ġthro": 6387,
    "Ġteased": 6388,
    "Ġsuperheroes": 6389,
    "Ġstartled": 6390,
    "Ġspins": 6391,
    "Ġspiders": 6392,
    "Ġsomebody": 6393,
    "Ġsnatched": 6394,
    "Ġscarves": 6395,
    "Ġsides": 6396,
    "Ġrequested": 6397,
    "Ġrainbows": 6398,
    "Ġproperly": 6399,
    "Ġpowers": 6400,
    "Ġpockets": 6401,
    "Ġplenty": 6402,
    "Ġperched": 6403,
    "Ġpaths": 6404,
    "Ġpout": 6405,
    "Ġnaps": 6406,
    "Ġmotion": 6407,
    "Ġmailed": 6408,
    "Ġknocks": 6409,
    "Ġkicks": 6410,
    "Ġitems": 6411,
    "Ġitchy": 6412,
    "Ġincreased": 6413,
    "Ġimproved": 6414,
    "Ġhus": 6415,
    "Ġgrowling": 6416,
    "Ġgroups": 6417,
    "Ġgreet": 6418,
    "Ġgrandmother": 6419,
    "Ġgri": 6420,
    "Ġforgiving": 6421,
    "Ġforehead": 6422,
    "Ġfascinated": 6423,
    "Ġfarther": 6424,
    "Ġfabric": 6425,
    "Ġfirm": 6426,
    "Ġdiscovering": 6427,
    "Ġcuriosity": 6428,
    "Ġcuddly": 6429,
    "Ġcompleted": 6430,
    "Ġchoices": 6431,
    "Ġchirping": 6432,
    "Ġcaused": 6433,
    "Ġbrand": 6434,
    "Ġbounces": 6435,
    "Ġblocking": 6436,
    "Ġbiting": 6437,
    "Ġbells": 6438,
    "Ġbelly": 6439,
    "ĠZipper": 6440,
    "ĠWant": 6441,
    "ĠTara": 6442,
    "ĠStay": 6443,
    "ĠSnowman": 6444,
    "ĠLena": 6445,
    "ĠHoot": 6446,
    "ĠGiraffe": 6447,
    "ĠFoxy": 6448,
    "ĠFishy": 6449,
    "ĠEn": 6450,
    "ĠChess": 6451,
    "ĠBarry": 6452,
    "vin": 6453,
    "uture": 6454,
    "though": 6455,
    "steps": 6456,
    "seek": 6457,
    "inkle": 6458,
    "ining": 6459,
    "eff": 6460,
    "anes": 6461,
    "aker": 6462,
    "Yeah": 6463,
    "Sometimes": 6464,
    "Pe": 6465,
    "Listen": 6466,
    "Hold": 6467,
    "Excuse": 6468,
    "Charlie": 6469,
    "Ġworries": 6470,
    "Ġusually": 6471,
    "Ġtunnels": 6472,
    "Ġthroat": 6473,
    "Ġswoop": 6474,
    "Ġswit": 6475,
    "Ġstands": 6476,
    "Ġsobbed": 6477,
    "Ġsoaring": 6478,
    "Ġshrinking": 6479,
    "Ġrocking": 6480,
    "Ġrip": 6481,
    "Ġrewarded": 6482,
    "Ġreaching": 6483,
    "Ġpromises": 6484,
    "Ġpops": 6485,
    "Ġpoliceman": 6486,
    "Ġpolar": 6487,
    "Ġpointy": 6488,
    "Ġobserved": 6489,
    "Ġneither": 6490,
    "Ġnine": 6491,
    "Ġlistens": 6492,
    "Ġimages": 6493,
    "Ġhonked": 6494,
    "Ġhandful": 6495,
    "Ġhallway": 6496,
    "Ġgiggling": 6497,
    "Ġfolding": 6498,
    "Ġfuture": 6499,
    "Ġdirection": 6500,
    "Ġdived": 6501,
    "Ġdar": 6502,
    "Ġcurtains": 6503,
    "Ġcreating": 6504,
    "Ġchases": 6505,
    "Ġbuzzed": 6506,
    "Ġbehaving": 6507,
    "Ġbur": 6508,
    "ĠWoo": 6509,
    "ĠUncle": 6510,
    "ĠTruck": 6511,
    "ĠSparkle": 6512,
    "ĠShadow": 6513,
    "ĠSay": 6514,
    "ĠPrince": 6515,
    "ĠPut": 6516,
    "ĠPatch": 6517,
    "ĠOak": 6518,
    "ĠHolly": 6519,
    "ĠBrownie": 6520,
    "âĢĶ": 6521,
    "yond": 6522,
    "ustom": 6523,
    "urried": 6524,
    "une": 6525,
    "tuce": 6526,
    "onge": 6527,
    "nk": 6528,
    "lowers": 6529,
    "lay": 6530,
    "iggie": 6531,
    "ido": 6532,
    "eds": 6533,
    "cakes": 6534,
    "blings": 6535,
    "bie": 6536,
    "ason": 6537,
    "angled": 6538,
    "abella": 6539,
    "Sunny": 6540,
    "Quack": 6541,
    "Maggie": 6542,
    "Henry": 6543,
    "Car": 6544,
    "==": 6545,
    "Ġwhispers": 6546,
    "Ġvanilla": 6547,
    "Ġuntied": 6548,
    "Ġunp": 6549,
    "Ġtasks": 6550,
    "Ġsuffered": 6551,
    "Ġstays": 6552,
    "Ġstaring": 6553,
    "Ġsponge": 6554,
    "Ġsiblings": 6555,
    "Ġseesaw": 6556,
    "Ġscurried": 6557,
    "Ġsank": 6558,
    "Ġrepa": 6559,
    "Ġpretends": 6560,
    "Ġnoses": 6561,
    "Ġnests": 6562,
    "Ġnapkins": 6563,
    "Ġmovies": 6564,
    "Ġlettuce": 6565,
    "Ġleaning": 6566,
    "Ġlap": 6567,
    "Ġinterested": 6568,
    "Ġhusband": 6569,
    "Ġgrowls": 6570,
    "Ġgrows": 6571,
    "Ġgasp": 6572,
    "Ġgross": 6573,
    "Ġfirefly": 6574,
    "Ġeveryday": 6575,
    "Ġdropping": 6576,
    "Ġdeserve": 6577,
    "Ġdent": 6578,
    "Ġcorners": 6579,
    "Ġcontro": 6580,
    "Ġcompletely": 6581,
    "Ġchuck": 6582,
    "Ġchop": 6583,
    "Ġcelebrating": 6584,
    "Ġcans": 6585,
    "Ġcustom": 6586,
    "Ġcent": 6587,
    "Ġbracelets": 6588,
    "Ġbodies": 6589,
    "Ġbeyond": 6590,
    "Ġbasement": 6591,
    "Ġavo": 6592,
    "Ġagrees": 6593,
    "Ġast": 6594,
    "ĠOlly": 6595,
    "ĠNothing": 6596,
    "ĠMouse": 6597,
    "ĠHowever": 6598,
    "ĠGina": 6599,
    "ĠFor": 6600,
    "ĠBirdie": 6601,
    "utty": 6602,
    "uzzy": 6603,
    "pite": 6604,
    "ounce": 6605,
    "ooed": 6606,
    "joyed": 6607,
    "itely": 6608,
    "iley": 6609,
    "eed": 6610,
    "awn": 6611,
    "Whee": 6612,
    "Very": 6613,
    "Those": 6614,
    "Susie": 6615,
    "Run": 6616,
    "Lola": 6617,
    "Doggy": 6618,
    "Chirpy": 6619,
    "Bunny": 6620,
    "Big": 6621,
    "?'": 6622,
    "Ġyum": 6623,
    "Ġwobbly": 6624,
    "Ġwishing": 6625,
    "Ġventured": 6626,
    "Ġvowed": 6627,
    "Ġtickled": 6628,
    "Ġtearing": 6629,
    "Ġsweets": 6630,
    "Ġsurface": 6631,
    "Ġsupplies": 6632,
    "Ġsquares": 6633,
    "Ġsquishy": 6634,
    "Ġspreading": 6635,
    "Ġspeaking": 6636,
    "Ġslam": 6637,
    "Ġsinger": 6638,
    "Ġsails": 6639,
    "Ġreplaced": 6640,
    "Ġrepaired": 6641,
    "Ġreads": 6642,
    "Ġranger": 6643,
    "Ġpumpkins": 6644,
    "Ġpracticing": 6645,
    "Ġpotion": 6646,
    "Ġpeeking": 6647,
    "Ġpatted": 6648,
    "Ġpartic": 6649,
    "Ġmerry": 6650,
    "Ġlosing": 6651,
    "Ġkeys": 6652,
    "Ġhowever": 6653,
    "Ġfact": 6654,
    "Ġdots": 6655,
    "Ġdollar": 6656,
    "Ġconfident": 6657,
    "Ġbravery": 6658,
    "Ġbatteries": 6659,
    "Ġbackwards": 6660,
    "Ġaccomplish": 6661,
    "ĠWhist": 6662,
    "ĠWink": 6663,
    "ĠTwinkle": 6664,
    "ĠSofia": 6665,
    "ĠPup": 6666,
    "ĠPine": 6667,
    "ĠPam": 6668,
    "ĠOur": 6669,
    "ĠNice": 6670,
    "ĠMix": 6671,
    "ĠJulie": 6672,
    "ĠJolly": 6673,
    "ĠHorsy": 6674,
    "ĠEx": 6675,
    "ĠCrab": 6676,
    "ĠCow": 6677,
    "ĠĊĠ": 6678,
    "usted": 6679,
    "order": 6680,
    "ivi": 6681,
    "fly": 6682,
    "father": 6683,
    "eal": 6684,
    "ctions": 6685,
    "cl": 6686,
    "Yummy": 6687,
    "Spike": 6688,
    "Some": 6689,
    "Ruby": 6690,
    "Pipp": 6691,
    "Mine": 6692,
    "Lulu": 6693,
    "Le": 6694,
    "Great": 6695,
    "Fine": 6696,
    "?\",": 6697,
    "Ġworkers": 6698,
    "Ġwires": 6699,
    "Ġwandering": 6700,
    "Ġuses": 6701,
    "Ġunpacked": 6702,
    "Ġtwinkling": 6703,
    "Ġstudent": 6704,
    "Ġstroked": 6705,
    "Ġsteady": 6706,
    "Ġstem": 6707,
    "Ġstain": 6708,
    "Ġsprang": 6709,
    "Ġsofter": 6710,
    "Ġsnowmen": 6711,
    "Ġshorts": 6712,
    "Ġscratches": 6713,
    "Ġsatis": 6714,
    "Ġrotting": 6715,
    "Ġrolls": 6716,
    "Ġroses": 6717,
    "Ġripe": 6718,
    "Ġrefreshed": 6719,
    "Ġreflection": 6720,
    "Ġrisk": 6721,
    "Ġpouring": 6722,
    "Ġposter": 6723,
    "Ġplayers": 6724,
    "Ġplanning": 6725,
    "Ġpaddle": 6726,
    "Ġpadd": 6727,
    "Ġpec": 6728,
    "Ġoutdo": 6729,
    "Ġnecklaces": 6730,
    "Ġni": 6731,
    "Ġmommies": 6732,
    "Ġminerals": 6733,
    "Ġmarked": 6734,
    "Ġlighter": 6735,
    "Ġknees": 6736,
    "Ġguests": 6737,
    "Ġgrip": 6738,
    "Ġfootsteps": 6739,
    "Ġflames": 6740,
    "Ġfirefighters": 6741,
    "Ġfilling": 6742,
    "Ġentrance": 6743,
    "Ġentire": 6744,
    "Ġdolphins": 6745,
    "Ġdentist": 6746,
    "Ġdecorating": 6747,
    "Ġdeal": 6748,
    "Ġcounts": 6749,
    "Ġcompetition": 6750,
    "Ġcomforted": 6751,
    "Ġchefs": 6752,
    "Ġchoo": 6753,
    "Ġcalmed": 6754,
    "Ġaside": 6755,
    "Ġarrows": 6756,
    "ĠWithout": 6757,
    "ĠSuzie": 6758,
    "ĠSorry": 6759,
    "ĠSl": 6760,
    "ĠPaws": 6761,
    "ĠOl": 6762,
    "ĠNick": 6763,
    "ĠMonster": 6764,
    "ĠFit": 6765,
    "ĠEnjoy": 6766,
    "ĠBirthday": 6767,
    "ĠBiggie": 6768,
    "zes": 6769,
    "xie": 6770,
    "vroom": 6771,
    "umbling": 6772,
    "uri": 6773,
    "sty": 6774,
    "sequ": 6775,
    "sequence": 6776,
    "rixie": 6777,
    "oline": 6778,
    "ledge": 6779,
    "iles": 6780,
    "hausted": 6781,
    "ercy": 6782,
    "ently": 6783,
    "ela": 6784,
    "brush": 6785,
    "aye": 6786,
    "ampoline": 6787,
    "alph": 6788,
    "Zoom": 6789,
    "Take": 6790,
    "Steve": 6791,
    "Sn": 6792,
    "Roar": 6793,
    "Out": 6794,
    "Mike": 6795,
    "Luckily": 6796,
    "Lizzy": 6797,
    "Katie": 6798,
    "Get": 6799,
    "Follow": 6800,
    "Ellie": 6801,
    "Dolly": 6802,
    "Bear": 6803,
    "Annie": 6804,
    "Ġwinked": 6805,
    "Ġwatering": 6806,
    "Ġwaiter": 6807,
    "Ġwow": 6808,
    "Ġtrampoline": 6809,
    "Ġtowels": 6810,
    "Ġtouches": 6811,
    "Ġthird": 6812,
    "Ġtiss": 6813,
    "Ġtangled": 6814,
    "Ġsurfing": 6815,
    "Ġsupported": 6816,
    "Ġstrongest": 6817,
    "Ġsteer": 6818,
    "Ġstool": 6819,
    "Ġsingle": 6820,
    "Ġsigned": 6821,
    "Ġshovels": 6822,
    "Ġshelves": 6823,
    "Ġseeker": 6824,
    "Ġrespons": 6825,
    "Ġremembering": 6826,
    "Ġrelief": 6827,
    "Ġrecorder": 6828,
    "Ġrising": 6829,
    "Ġprayer": 6830,
    "Ġpiggy": 6831,
    "Ġperformed": 6832,
    "Ġpastries": 6833,
    "Ġpassing": 6834,
    "Ġoverjoyed": 6835,
    "Ġoutdoors": 6836,
    "Ġopp": 6837,
    "Ġnotes": 6838,
    "Ġmood": 6839,
    "Ġlollipops": 6840,
    "Ġlicking": 6841,
    "Ġleast": 6842,
    "Ġknowledge": 6843,
    "Ġincluded": 6844,
    "Ġhider": 6845,
    "Ġheav": 6846,
    "Ġflavor": 6847,
    "Ġflapping": 6848,
    "Ġelbow": 6849,
    "Ġdrums": 6850,
    "Ġdesert": 6851,
    "Ġconsequence": 6852,
    "Ġconn": 6853,
    "Ġcloses": 6854,
    "Ġchuckled": 6855,
    "Ġcheeks": 6856,
    "Ġchat": 6857,
    "Ġburns": 6858,
    "Ġbegin": 6859,
    "Ġbeam": 6860,
    "Ġbathing": 6861,
    "Ġbunch": 6862,
    "ĠZee": 6863,
    "ĠYawn": 6864,
    "ĠTweetie": 6865,
    "ĠStella": 6866,
    "ĠSw": 6867,
    "ĠPu": 6868,
    "ĠJojo": 6869,
    "ĠJeff": 6870,
    "ĠHur": 6871,
    "ĠGoodbye": 6872,
    "ĠDizzy": 6873,
    "ĠBrian": 6874,
    "ĠBook": 6875,
    "ĠAnne": 6876,
    "ĠAunt": 6877,
    "ĠAbigail": 6878,
    "ĠĠ": 6879,
    "urtles": 6880,
    "urious": 6881,
    "ths": 6882,
    "rrr": 6883,
    "romise": 6884,
    "ossible": 6885,
    "no": 6886,
    "isions": 6887,
    "inny": 6888,
    "icha": 6889,
    "ichael": 6890,
    "fall": 6891,
    "een": 6892,
    "bert": 6893,
    "autious": 6894,
    "Rose": 6895,
    "Penny": 6896,
    "May": 6897,
    "Jump": 6898,
    "Harry": 6899,
    "Danny": 6900,
    "Ġwipes": 6901,
    "Ġwhistles": 6902,
    "Ġtwirling": 6903,
    "Ġtoaster": 6904,
    "Ġthorn": 6905,
    "Ġtables": 6906,
    "Ġturtles": 6907,
    "Ġswooped": 6908,
    "Ġswords": 6909,
    "Ġsurroundings": 6910,
    "Ġstew": 6911,
    "Ġsqueaked": 6912,
    "Ġspat": 6913,
    "Ġsneezing": 6914,
    "Ġships": 6915,
    "Ġsewed": 6916,
    "Ġsale": 6917,
    "Ġrocked": 6918,
    "Ġrains": 6919,
    "Ġrusty": 6920,
    "Ġrumble": 6921,
    "Ġprayers": 6922,
    "Ġparticular": 6923,
    "Ġornaments": 6924,
    "Ġmushrooms": 6925,
    "Ġminded": 6926,
    "Ġmatters": 6927,
    "Ġmachines": 6928,
    "Ġloading": 6929,
    "Ġkittens": 6930,
    "Ġjoining": 6931,
    "Ġintroduced": 6932,
    "Ġinstrum": 6933,
    "Ġimpossible": 6934,
    "Ġhumans": 6935,
    "Ġhesitated": 6936,
    "Ġforgiven": 6937,
    "Ġfits": 6938,
    "Ġfairies": 6939,
    "Ġexhausted": 6940,
    "Ġends": 6941,
    "Ġdecisions": 6942,
    "Ġdarkness": 6943,
    "Ġdarling": 6944,
    "Ġdancers": 6945,
    "Ġcousin": 6946,
    "Ġcontrol": 6947,
    "Ġconsequences": 6948,
    "Ġbru": 6949,
    "Ġblown": 6950,
    "Ġbaths": 6951,
    "Ġbars": 6952,
    "Ġbackpacks": 6953,
    "Ġadding": 6954,
    "Ġachieve": 6955,
    "Ġaimed": 6956,
    "Ġaff": 6957,
    "ĠZiggy": 6958,
    "ĠVivi": 6959,
    "ĠSofty": 6960,
    "ĠSc": 6961,
    "ĠReg": 6962,
    "ĠPh": 6963,
    "ĠOxy": 6964,
    "ĠNutty": 6965,
    "ĠLau": 6966,
    "ĠKaylee": 6967,
    "ĠJones": 6968,
    "ĠJanie": 6969,
    "ĠJamie": 6970,
    "ĠHurricane": 6971,
    "ĠFido": 6972,
    "ĠBeth": 6973,
    "ĠBelle": 6974,
    "Ġ10": 6975,
    "Ġicing": 6976,
    "you": 6977,
    "ters": 6978,
    "sm": 6979,
    "shing": 6980,
    "oke": 6981,
    "ody": 6982,
    "ndy": 6983,
    "neath": 6984,
    "lle": 6985,
    "hi": 6986,
    "gers": 6987,
    "ept": 6988,
    "eese": 6989,
    "dding": 6990,
    "chy": 6991,
    "ces": 6992,
    "cited": 6993,
    "cie": 6994,
    "alloween": 6995,
    "ading": 6996,
    "ades": 6997,
    "abel": 6998,
    "Grace": 6999,
    "Co": 7000,
    "Beep": 7001,
    "Bet": 7002,
    "Baby": 7003,
    "Alex": 7004,
    "Ġyourselves": 7005,
    "Ġwrist": 7006,
    "Ġwee": 7007,
    "Ġwakes": 7008,
    "Ġuns": 7009,
    "Ġund": 7010,
    "Ġtwisting": 7011,
    "Ġtighter": 7012,
    "Ġtested": 7013,
    "Ġtalents": 7014,
    "Ġswimmer": 7015,
    "Ġstung": 7016,
    "Ġstumble": 7017,
    "Ġsparks": 7018,
    "Ġslowed": 7019,
    "Ġslammed": 7020,
    "Ġskirts": 7021,
    "Ġsewing": 7022,
    "Ġsalty": 7023,
    "Ġrobber": 7024,
    "Ġregretted": 7025,
    "Ġprick": 7026,
    "Ġnodding": 7027,
    "Ġneare": 7028,
    "Ġnuzz": 7029,
    "Ġmesmer": 7030,
    "Ġloops": 7031,
    "Ġlending": 7032,
    "Ġjackets": 7033,
    "Ġheavier": 7034,
    "Ġhealth": 7035,
    "Ġheading": 7036,
    "Ġguide": 7037,
    "Ġgrandfather": 7038,
    "Ġgracefully": 7039,
    "Ġgobbled": 7040,
    "Ġghosts": 7041,
    "Ġgoo": 7042,
    "Ġgeese": 7043,
    "Ġfrowning": 7044,
    "Ġforks": 7045,
    "Ġforgets": 7046,
    "Ġfever": 7047,
    "Ġfart": 7048,
    "Ġerase": 7049,
    "Ġdoctors": 7050,
    "Ġdirections": 7051,
    "Ġdetermination": 7052,
    "Ġcurly": 7053,
    "Ġcrumb": 7054,
    "Ġclowns": 7055,
    "Ġcarts": 7056,
    "Ġbumps": 7057,
    "Ġangels": 7058,
    "Ġaloud": 7059,
    "ĠWo": 7060,
    "ĠToot": 7061,
    "ĠThose": 7062,
    "ĠToys": 7063,
    "ĠSpirit": 7064,
    "ĠShiver": 7065,
    "ĠSadly": 7066,
    "ĠRudy": 7067,
    "ĠPink": 7068,
    "ĠOther": 7069,
    "ĠMill": 7070,
    "ĠMild": 7071,
    "ĠMam": 7072,
    "ĠLiam": 7073,
    "ĠJennie": 7074,
    "ĠJacky": 7075,
    "ĠJu": 7076,
    "ĠFaye": 7077,
    "ĠDina": 7078,
    "ronaut": 7079,
    "reverse": 7080,
    "oosh": 7081,
    "iversity": 7082,
    "its": 7083,
    "iggles": 7084,
    "iel": 7085,
    "Vroom": 7086,
    "Shrink": 7087,
    "Sad": 7088,
    "Lina": 7089,
    "Kim": 7090,
    "Keep": 7091,
    "For": 7092,
    "Even": 7093,
    "Elly": 7094,
    "...": 7095,
    ".'\"": 7096,
    "--": 7097,
    "Ġyielded": 7098,
    "Ġwarmer": 7099,
    "Ġvideos": 7100,
    "Ġunderneath": 7101,
    "Ġtweet": 7102,
    "Ġtissue": 7103,
    "Ġswitched": 7104,
    "Ġsweaty": 7105,
    "Ġswept": 7106,
    "Ġsunscreen": 7107,
    "Ġstroll": 7108,
    "Ġsolut": 7109,
    "Ġsnuck": 7110,
    "Ġslipping": 7111,
    "Ġskunk": 7112,
    "Ġself": 7113,
    "Ġsy": 7114,
    "Ġruining": 7115,
    "Ġrubs": 7116,
    "Ġrows": 7117,
    "Ġpos": 7118,
    "Ġpleaded": 7119,
    "Ġperforming": 7120,
    "Ġpecked": 7121,
    "Ġpaintbrush": 7122,
    "Ġoutf": 7123,
    "Ġobjects": 7124,
    "Ġmodels": 7125,
    "Ġmagpie": 7126,
    "Ġmater": 7127,
    "Ġloses": 7128,
    "Ġlies": 7129,
    "Ġleap": 7130,
    "Ġinsects": 7131,
    "Ġhopeful": 7132,
    "Ġhonesty": 7133,
    "Ġhides": 7134,
    "Ġglued": 7135,
    "Ġfrowns": 7136,
    "Ġfleas": 7137,
    "Ġfeast": 7138,
    "Ġfarthest": 7139,
    "Ġev": 7140,
    "Ġdonkey": 7141,
    "Ġdollhouse": 7142,
    "Ġdisob": 7143,
    "Ġden": 7144,
    "Ġcustomer": 7145,
    "Ġcrumbs": 7146,
    "Ġcountryside": 7147,
    "Ġcombed": 7148,
    "Ġcobwebs": 7149,
    "Ġcor": 7150,
    "Ġcautious": 7151,
    "Ġbreathed": 7152,
    "Ġbadge": 7153,
    "Ġbun": 7154,
    "Ġbumpy": 7155,
    "Ġavoid": 7156,
    "Ġastronaut": 7157,
    "Ġannoyed": 7158,
    "Ġamong": 7159,
    "Ġactive": 7160,
    "ĠZero": 7161,
    "ĠTrust": 7162,
    "ĠThanks": 7163,
    "ĠTry": 7164,
    "ĠTippy": 7165,
    "ĠTe": 7166,
    "ĠSuki": 7167,
    "ĠStarry": 7168,
    "ĠSadie": 7169,
    "ĠSe": 7170,
    "ĠMatch": 7171,
    "ĠLina": 7172,
    "ĠJon": 7173,
    "ĠFrosty": 7174,
    "ĠFle": 7175,
    "ĠDidi": 7176,
    "ĠCro": 7177,
    "uren": 7178,
    "ulpture": 7179,
    "rup": 7180,
    "rops": 7181,
    "rin": 7182,
    "piece": 7183,
    "oring": 7184,
    "llen": 7185,
    "iolet": 7186,
    "indrops": 7187,
    "ilo": 7188,
    "igers": 7189,
    "elia": 7190,
    "ddie": 7191,
    "cept": 7192,
    "cc": 7193,
    "bbie": 7194,
    "arac": 7195,
    "ans": 7196,
    "aned": 7197,
    "addie": 7198,
    "auren": 7199,
    "Pippin": 7200,
    "Put": 7201,
    "Lena": 7202,
    "Gina": 7203,
    "Clara": 7204,
    "Che": 7205,
    "Betty": 7206,
    "Buzzy": 7207,
    "Boys": 7208,
    "Bow": 7209,
    "Ġzooms": 7210,
    "Ġvisitors": 7211,
    "Ġunsure": 7212,
    "Ġunw": 7213,
    "Ġtrusting": 7214,
    "Ġtreehouse": 7215,
    "Ġtipto": 7216,
    "Ġtalented": 7217,
    "Ġtipped": 7218,
    "Ġtigers": 7219,
    "Ġstuffing": 7220,
    "Ġsqueezing": 7221,
    "Ġspits": 7222,
    "Ġslower": 7223,
    "Ġslither": 7224,
    "Ġshown": 7225,
    "Ġscrub": 7226,
    "Ġsculpture": 7227,
    "Ġscra": 7228,
    "Ġsway": 7229,
    "Ġsens": 7230,
    "Ġresponsible": 7231,
    "Ġreminds": 7232,
    "Ġrever": 7233,
    "Ġreason": 7234,
    "Ġrainy": 7235,
    "Ġraindrops": 7236,
    "Ġrather": 7237,
    "Ġpurr": 7238,
    "Ġprinting": 7239,
    "Ġprickly": 7240,
    "Ġprevented": 7241,
    "Ġplanting": 7242,
    "Ġplain": 7243,
    "Ġocc": 7244,
    "Ġmateri": 7245,
    "Ġmasterpiece": 7246,
    "Ġmarkers": 7247,
    "Ġmunch": 7248,
    "Ġloudest": 7249,
    "Ġleads": 7250,
    "Ġknocking": 7251,
    "Ġjoins": 7252,
    "Ġincluding": 7253,
    "Ġimagining": 7254,
    "Ġignoring": 7255,
    "Ġhalves": 7256,
    "Ġgazing": 7257,
    "Ġflight": 7258,
    "Ġfans": 7259,
    "Ġearn": 7260,
    "Ġdragonfly": 7261,
    "Ġdod": 7262,
    "Ġdesigned": 7263,
    "Ġdef": 7264,
    "Ġdamage": 7265,
    "Ġcuriously": 7266,
    "Ġcreams": 7267,
    "Ġcharac": 7268,
    "Ġcash": 7269,
    "Ġbuying": 7270,
    "Ġblinking": 7271,
    "Ġbacked": 7272,
    "Ġashes": 7273,
    "Ġanger": 7274,
    "Ġage": 7275,
    "Ġafterwards": 7276,
    "Ġadults": 7277,
    "Ġache": 7278,
    "Ġaud": 7279,
    "ĠWhistle": 7280,
    "ĠWiggles": 7281,
    "ĠTam": 7282,
    "ĠPercy": 7283,
    "ĠPen": 7284,
    "ĠMegan": 7285,
    "ĠMother": 7286,
    "ĠMint": 7287,
    "ĠListen": 7288,
    "ĠLaser": 7289,
    "ĠHold": 7290,
    "ĠHalloween": 7291,
    "ĠDavey": 7292,
    "ĠDay": 7293,
    "ĠChick": 7294,
    "ĠCandy": 7295,
    "ĠBally": 7296,
    "ĠBall": 7297,
    "ĠBaa": 7298,
    "ĠAlong": 7299,
    "ĠAdam": 7300,
    "wise": 7301,
    "using": 7302,
    "uno": 7303,
    "umph": 7304,
    "uggles": 7305,
    "uing": 7306,
    "ude": 7307,
    "pecting": 7308,
    "pit": 7309,
    "osite": 7310,
    "ohny": 7311,
    "obody": 7312,
    "laying": 7313,
    "len": 7314,
    "itude": 7315,
    "ition": 7316,
    "itches": 7317,
    "issa": 7318,
    "ira": 7319,
    "inda": 7320,
    "iliar": 7321,
    "found": 7322,
    "endy": 7323,
    "ching": 7324,
    "ceries": 7325,
    "aren": 7326,
    "ampion": 7327,
    "amiliar": 7328,
    "aled": 7329,
    "achel": 7330,
    "Under": 7331,
    "Tina": 7332,
    "Suzy": 7333,
    "Pat": 7334,
    "Pandy": 7335,
    "Kate": 7336,
    "Joey": 7337,
    "Julie": 7338,
    "Jazz": 7339,
    "Hurry": 7340,
    "Fro": 7341,
    "David": 7342,
    "Dan": 7343,
    "Cindy": 7344,
    "Always": 7345,
    "'.\"": 7346,
    "!âĢĿ.": 7347,
    "Ġwounds": 7348,
    "Ġwobbled": 7349,
    "Ġwiping": 7350,
    "Ġwealth": 7351,
    "Ġunwra": 7352,
    "Ġunfamiliar": 7353,
    "Ġtwists": 7354,
    "Ġtwinkled": 7355,
    "Ġtwice": 7356,
    "Ġtravelled": 7357,
    "Ġtossed": 7358,
    "Ġtires": 7359,
    "Ġtemper": 7360,
    "Ġtasting": 7361,
    "Ġtalks": 7362,
    "Ġting": 7363,
    "Ġtin": 7364,
    "Ġtid": 7365,
    "Ġsurprising": 7366,
    "Ġsurfboard": 7367,
    "Ġstopping": 7368,
    "Ġstolen": 7369,
    "Ġsource": 7370,
    "Ġsolution": 7371,
    "Ġsolving": 7372,
    "Ġsoaking": 7373,
    "Ġsatisfied": 7374,
    "Ġsill": 7375,
    "Ġrubbing": 7376,
    "Ġreversed": 7377,
    "Ġreminding": 7378,
    "Ġrecommended": 7379,
    "Ġrails": 7380,
    "Ġpresses": 7381,
    "Ġpleasure": 7382,
    "Ġplucked": 7383,
    "Ġpapa": 7384,
    "Ġpaddled": 7385,
    "Ġoysters": 7386,
    "Ġovercome": 7387,
    "Ġopposite": 7388,
    "Ġoccas": 7389,
    "Ġnearest": 7390,
    "Ġmooed": 7391,
    "Ġmiles": 7392,
    "Ġmaker": 7393,
    "Ġlifting": 7394,
    "Ġlower": 7395,
    "Ġjourneys": 7396,
    "Ġindeed": 7397,
    "Ġinsp": 7398,
    "Ġgroceries": 7399,
    "Ġform": 7400,
    "Ġfluttered": 7401,
    "Ġflipped": 7402,
    "Ġfirmly": 7403,
    "Ġfins": 7404,
    "Ġfreed": 7405,
    "Ġeverybody": 7406,
    "Ġevil": 7407,
    "Ġduckling": 7408,
    "Ġdrivers": 7409,
    "Ġcolored": 7410,
    "Ġcolder": 7411,
    "Ġcheers": 7412,
    "Ġchampion": 7413,
    "Ġcaterpillars": 7414,
    "Ġcamping": 7415,
    "Ġcott": 7416,
    "Ġbunnies": 7417,
    "Ġbuses": 7418,
    "Ġbrushing": 7419,
    "Ġbows": 7420,
    "Ġbottles": 7421,
    "Ġbehaviour": 7422,
    "Ġbandages": 7423,
    "Ġaudience": 7424,
    "Ġamount": 7425,
    "Ġadult": 7426,
    "Ġaccomplishment": 7427,
    "Ġabil": 7428,
    "ĠWoolly": 7429,
    "ĠWeapon": 7430,
    "ĠWake": 7431,
    "ĠUp": 7432,
    "ĠTrixie": 7433,
    "ĠTia": 7434,
    "ĠSnuggles": 7435,
    "ĠSnap": 7436,
    "ĠShake": 7437,
    "ĠOliver": 7438,
    "ĠNear": 7439,
    "ĠIndy": 7440,
    "ĠGracie": 7441,
    "ĠGray": 7442,
    "ĠElle": 7443,
    "ĠEd": 7444,
    "ĠBruno": 7445,
    "ĠBluey": 7446,
    "ĠBark": 7447,
    "what": 7448,
    "woo": 7449,
    "vers": 7450,
    "urr": 7451,
    "uess": 7452,
    "son": 7453,
    "ptop": 7454,
    "owny": 7455,
    "osen": 7456,
    "ngela": 7457,
    "lsa": 7458,
    "kend": 7459,
    "kelly": 7460,
    "itted": 7461,
    "ighing": 7462,
    "idey": 7463,
    "ici": 7464,
    "ibb": 7465,
    "ibbit": 7466,
    "hopper": 7467,
    "feree": 7468,
    "erm": 7469,
    "cky": 7470,
    "chievous": 7471,
    "cho": 7472,
    "cher": 7473,
    "but": 7474,
    "ashes": 7475,
    "amb": 7476,
    "allowed": 7477,
    "aling": 7478,
    "ably": 7479,
    "Thomas": 7480,
    "Toby": 7481,
    "Ribbit": 7482,
    "People": 7483,
    "Op": 7484,
    "Nick": 7485,
    "Liz": 7486,
    "Josh": 7487,
    "Jessie": 7488,
    "Guess": 7489,
    "Days": 7490,
    "Br": 7491,
    "Bill": 7492,
    "Bang": 7493,
    "Alright": 7494,
    "Afterwards": 7495,
    "Aunt": 7496,
    "Am": 7497,
    "Abby": 7498,
    "?!\"": 7499,
    "!âĢĻ": 7500,
    "Ġyounger": 7501,
    "Ġyelp": 7502,
    "Ġwritten": 7503,
    "Ġwithin": 7504,
    "Ġweekend": 7505,
    "Ġwasting": 7506,
    "Ġtubes": 7507,
    "Ġtroubles": 7508,
    "Ġtrembled": 7509,
    "Ġtops": 7510,
    "Ġthrown": 7511,
    "Ġtaped": 7512,
    "Ġtapping": 7513,
    "Ġty": 7514,
    "Ġswimsuit": 7515,
    "Ġswap": 7516,
    "Ġswallowed": 7517,
    "Ġstroke": 7518,
    "Ġstrips": 7519,
    "Ġsqueak": 7520,
    "Ġspeeding": 7521,
    "Ġspice": 7522,
    "Ġsniffing": 7523,
    "Ġsharks": 7524,
    "Ġseasons": 7525,
    "Ġscored": 7526,
    "Ġrobots": 7527,
    "Ġrobin": 7528,
    "Ġresults": 7529,
    "Ġrespected": 7530,
    "Ġrepeats": 7531,
    "Ġrepeating": 7532,
    "Ġreferee": 7533,
    "Ġraccoon": 7534,
    "Ġrays": 7535,
    "Ġpunishment": 7536,
    "Ġpouted": 7537,
    "Ġplayroom": 7538,
    "Ġpigeons": 7539,
    "Ġpeacefully": 7540,
    "Ġparted": 7541,
    "Ġpancakes": 7542,
    "Ġonward": 7543,
    "Ġonions": 7544,
    "Ġnewfound": 7545,
    "Ġneatly": 7546,
    "Ġmischievous": 7547,
    "Ġlifts": 7548,
    "Ġlaptop": 7549,
    "Ġlump": 7550,
    "Ġinspired": 7551,
    "Ġinches": 7552,
    "Ġhealing": 7553,
    "Ġguardian": 7554,
    "Ġgrasshopper": 7555,
    "Ġgoalie": 7556,
    "Ġgardener": 7557,
    "Ġfriendships": 7558,
    "Ġforgetting": 7559,
    "Ġforce": 7560,
    "Ġflown": 7561,
    "Ġflock": 7562,
    "Ġflip": 7563,
    "Ġfigured": 7564,
    "Ġfamiliar": 7565,
    "Ġexplorer": 7566,
    "Ġencourag": 7567,
    "Ġefforts": 7568,
    "Ġecho": 7569,
    "Ġease": 7570,
    "Ġdripping": 7571,
    "Ġdrifted": 7572,
    "Ġdecision": 7573,
    "Ġdump": 7574,
    "Ġcorre": 7575,
    "Ġcoloured": 7576,
    "Ġcond": 7577,
    "Ġcircus": 7578,
    "Ġchosen": 7579,
    "Ġchar": 7580,
    "Ġcashier": 7581,
    "Ġborrowed": 7582,
    "Ġbelts": 7583,
    "Ġbecomes": 7584,
    "Ġbanged": 7585,
    "Ġbacks": 7586,
    "Ġautomobiles": 7587,
    "Ġapologised": 7588,
    "Ġaction": 7589,
    "ĠYet": 7590,
    "ĠYell": 7591,
    "ĠWendy": 7592,
    "ĠWelcome": 7593,
    "ĠTwo": 7594,
    "ĠTank": 7595,
    "ĠShow": 7596,
    "ĠSkelly": 7597,
    "ĠRuff": 7598,
    "ĠRa": 7599,
    "ĠPoor": 7600,
    "ĠPin": 7601,
    "ĠMichael": 7602,
    "ĠKe": 7603,
    "ĠJackie": 7604,
    "ĠIsabella": 7605,
    "ĠHook": 7606,
    "ĠFish": 7607,
    "ĠExcited": 7608,
    "ĠDusty": 7609,
    "ĠCopper": 7610,
    "ĠCla": 7611,
    "ĠCally": 7612,
    "ĠBrad": 7613,
    "ĠAcorn": 7614,
    "Ġouch": 7615,
    "thur": 7616,
    "the": 7617,
    "sess": 7618,
    "sa": 7619,
    "rier": 7620,
    "rick": 7621,
    "rthur": 7622,
    "rily": 7623,
    "orky": 7624,
    "opes": 7625,
    "ollen": 7626,
    "mates": 7627,
    "match": 7628,
    "ji": 7629,
    "imm": 7630,
    "igning": 7631,
    "hog": 7632,
    "hive": 7633,
    "form": 7634,
    "espite": 7635,
    "ening": 7636,
    "cope": 7637,
    "atur": 7638,
    "armer": 7639,
    "antern": 7640,
    "acles": 7641,
    "aver": 7642,
    "Zara": 7643,
    "Try": 7644,
    "Soup": 7645,
    "Like": 7646,
    "Jon": 7647,
    "Jamie": 7648,
    "Hop": 7649,
    "Coco": 7650,
    "Bessie": 7651,
    "Bee": 7652,
    "Barry": 7653,
    "Ġwrapping": 7654,
    "Ġwrink": 7655,
    "Ġwinners": 7656,
    "Ġwilling": 7657,
    "Ġwhimp": 7658,
    "Ġweighing": 7659,
    "Ġweeds": 7660,
    "Ġwaking": 7661,
    "Ġtot": 7662,
    "Ġtiptoed": 7663,
    "Ġthorns": 7664,
    "Ġteapot": 7665,
    "Ġswollen": 7666,
    "Ġstitches": 7667,
    "Ġspoonful": 7668,
    "Ġspills": 7669,
    "Ġspices": 7670,
    "Ġsniffs": 7671,
    "Ġsmelling": 7672,
    "Ġsmashed": 7673,
    "Ġshaped": 7674,
    "Ġshady": 7675,
    "Ġsensation": 7676,
    "Ġsecure": 7677,
    "Ġscen": 7678,
    "Ġsandpit": 7679,
    "Ġrect": 7680,
    "Ġrats": 7681,
    "Ġrust": 7682,
    "Ġqueens": 7683,
    "Ġpurpose": 7684,
    "Ġpurrs": 7685,
    "Ġpokes": 7686,
    "Ġplayhouse": 7687,
    "Ġplot": 7688,
    "Ġpatches": 7689,
    "Ġpackages": 7690,
    "Ġnuzzled": 7691,
    "Ġneedles": 7692,
    "Ġnapped": 7693,
    "Ġmoonlight": 7694,
    "Ġmiller": 7695,
    "Ġmesses": 7696,
    "Ġlowered": 7697,
    "Ġlizards": 7698,
    "Ġlibrarian": 7699,
    "Ġlanguages": 7700,
    "Ġlent": 7701,
    "Ġlantern": 7702,
    "Ġlamb": 7703,
    "Ġknots": 7704,
    "Ġjoyful": 7705,
    "Ġinvitations": 7706,
    "Ġhedgehog": 7707,
    "Ġheight": 7708,
    "Ġhaircuts": 7709,
    "Ġhoo": 7710,
    "Ġguessing": 7711,
    "Ġgroaned": 7712,
    "Ġgrabbing": 7713,
    "Ġfooled": 7714,
    "Ġenthusiasm": 7715,
    "Ġdresser": 7716,
    "Ġdrawn": 7717,
    "Ġdisobey": 7718,
    "Ġdesigns": 7719,
    "Ġcrossing": 7720,
    "Ġcracker": 7721,
    "Ġcraft": 7722,
    "Ġconnected": 7723,
    "Ġcons": 7724,
    "Ġcosy": 7725,
    "Ġcoach": 7726,
    "Ġcleaner": 7727,
    "Ġcautiously": 7728,
    "Ġcaw": 7729,
    "Ġbruises": 7730,
    "Ġbreathing": 7731,
    "Ġbothering": 7732,
    "Ġbothered": 7733,
    "Ġbellies": 7734,
    "Ġbehavior": 7735,
    "Ġbeginning": 7736,
    "Ġbeehive": 7737,
    "Ġbully": 7738,
    "Ġarrives": 7739,
    "Ġaim": 7740,
    "ĠYellow": 7741,
    "ĠWoof": 7742,
    "ĠWilly": 7743,
    "ĠTime": 7744,
    "ĠSteppy": 7745,
    "ĠStret": 7746,
    "ĠSmoke": 7747,
    "ĠRia": 7748,
    "ĠPuppy": 7749,
    "ĠPurr": 7750,
    "ĠPizza": 7751,
    "ĠPill": 7752,
    "ĠMamma": 7753,
    "ĠLuckily": 7754,
    "ĠLion": 7755,
    "ĠKayla": 7756,
    "ĠJay": 7757,
    "ĠIsn": 7758,
    "ĠForky": 7759,
    "ĠClaire": 7760,
    "ĠCloud": 7761,
    "ĠChr": 7762,
    "ĠCha": 7763,
    "ĠCD": 7764,
    "ĠBloom": 7765,
    "ĠBi": 7766,
    "ĠAlthough": 7767,
    "ĠApp": 7768,
    "ĠAbbie": 7769,
    "Ġ2": 7770,
    "zoom": 7771,
    "zi": 7772,
    "yes": 7773,
    "ushroom": 7774,
    "urrender": 7775,
    "ummies": 7776,
    "ulf": 7777,
    "that": 7778,
    "tock": 7779,
    "seed": 7780,
    "river": 7781,
    "rie": 7782,
    "rig": 7783,
    "ppies": 7784,
    "orter": 7785,
    "orking": 7786,
    "onies": 7787,
    "omb": 7788,
    "ley": 7789,
    "ldy": 7790,
    "izon": 7791,
    "ivity": 7792,
    "initely": 7793,
    "immer": 7794,
    "illed": 7795,
    "ighty": 7796,
    "iddy": 7797,
    "iving": 7798,
    "iky": 7799,
    "ibbles": 7800,
    "fus": 7801,
    "ertain": 7802,
    "eling": 7803,
    "ears": 7804,
    "ezi": 7805,
    "byes": 7806,
    "beep": 7807,
    "ba": 7808,
    "aterpillar": 7809,
    "armen": 7810,
    "annah": 7811,
    "anet": 7812,
    "anced": 7813,
    "agic": 7814,
    "afy": 7815,
    "ailey": 7816,
    "Zip": 7817,
    "Which": 7818,
    "Sharing": 7819,
    "Ray": 7820,
    "Pip": 7821,
    "Pinky": 7822,
    "Marie": 7823,
    "Freddy": 7824,
    "By": 7825,
    "Brian": 7826,
    "Bounce": 7827,
    "Ġworrying": 7828,
    "Ġwobble": 7829,
    "Ġwisely": 7830,
    "Ġwhoosh": 7831,
    "Ġwept": 7832,
    "Ġwaterfall": 7833,
    "Ġwaded": 7834,
    "Ġwider": 7835,
    "Ġuniforms": 7836,
    "Ġtying": 7837,
    "Ġtummies": 7838,
    "Ġtumbled": 7839,
    "Ġsweaters": 7840,
    "Ġsweep": 7841,
    "Ġsuffering": 7842,
    "Ġstreamers": 7843,
    "Ġstorekeeper": 7844,
    "Ġstomp": 7845,
    "Ġstamped": 7846,
    "Ġsquaw": 7847,
    "Ġspringing": 7848,
    "Ġsniffled": 7849,
    "Ġslapping": 7850,
    "Ġshops": 7851,
    "Ġserv": 7852,
    "Ġscrews": 7853,
    "Ġscratching": 7854,
    "Ġscurry": 7855,
    "Ġsav": 7856,
    "Ġrespond": 7857,
    "Ġrelaxing": 7858,
    "Ġrectangle": 7859,
    "Ġrealizing": 7860,
    "Ġprobably": 7861,
    "Ġpossess": 7862,
    "Ġpinching": 7863,
    "Ġpeeled": 7864,
    "Ġponies": 7865,
    "Ġnoticing": 7866,
    "Ġmotorcycles": 7867,
    "Ġmonths": 7868,
    "Ġmomma": 7869,
    "Ġmoons": 7870,
    "Ġminding": 7871,
    "Ġmints": 7872,
    "Ġmeaning": 7873,
    "Ġmeals": 7874,
    "Ġmassages": 7875,
    "Ġmarker": 7876,
    "Ġmanners": 7877,
    "Ġlarger": 7878,
    "Ġlabels": 7879,
    "Ġlaces": 7880,
    "Ġkings": 7881,
    "Ġjobs": 7882,
    "Ġinstruments": 7883,
    "Ġinsisting": 7884,
    "Ġinj": 7885,
    "Ġhorizon": 7886,
    "Ġhandsome": 7887,
    "Ġgoodbyes": 7888,
    "Ġglared": 7889,
    "Ġgiggles": 7890,
    "Ġgems": 7891,
    "Ġgasps": 7892,
    "Ġgest": 7893,
    "Ġfocus": 7894,
    "Ġfilms": 7895,
    "Ġfills": 7896,
    "Ġexercises": 7897,
    "Ġencouragement": 7898,
    "Ġencouraging": 7899,
    "Ġencount": 7900,
    "Ġedges": 7901,
    "Ġdoorway": 7902,
    "Ġdisplayed": 7903,
    "Ġdiscussed": 7904,
    "Ġdestroying": 7905,
    "Ġdefinitely": 7906,
    "Ġdeed": 7907,
    "Ġdances": 7908,
    "Ġdip": 7909,
    "Ġdaring": 7910,
    "Ġcreativity": 7911,
    "Ġcrackers": 7912,
    "Ġcowb": 7913,
    "Ġcorrectly": 7914,
    "Ġconvin": 7915,
    "Ġclues": 7916,
    "Ġclicked": 7917,
    "Ġcheaper": 7918,
    "Ġchanges": 7919,
    "Ġcentre": 7920,
    "Ġcenter": 7921,
    "Ġcares": 7922,
    "Ġcoug": 7923,
    "Ġbrightest": 7924,
    "Ġblast": 7925,
    "Ġbirdseed": 7926,
    "Ġbelongings": 7927,
    "Ġbeeped": 7928,
    "Ġbomb": 7929,
    "Ġbitten": 7930,
    "Ġaeroplanes": 7931,
    "Ġadmiration": 7932,
    "Ġactivity": 7933,
    "ĠUniversity": 7934,
    "ĠTree": 7935,
    "ĠTiger": 7936,
    "ĠTidy": 7937,
    "ĠTake": 7938,
    "ĠSpoon": 7939,
    "ĠSpidey": 7940,
    "ĠRufus": 7941,
    "ĠRich": 7942,
    "ĠRain": 7943,
    "ĠRachel": 7944,
    "ĠOkay": 7945,
    "ĠOink": 7946,
    "ĠNobody": 7947,
    "ĠNibbles": 7948,
    "ĠMixy": 7949,
    "ĠMelissa": 7950,
    "ĠMeowny": 7951,
    "ĠMushroom": 7952,
    "ĠMop": 7953,
    "ĠMighty": 7954,
    "ĠMan": 7955,
    "ĠLouise": 7956,
    "ĠLeafy": 7957,
    "ĠJody": 7958,
    "ĠJump": 7959,
    "ĠJem": 7960,
    "ĠGranny": 7961,
    "ĠFrankie": 7962,
    "ĠFlora": 7963,
    "ĠFlame": 7964,
    "ĠFire": 7965,
    "ĠFarmer": 7966,
    "ĠElsa": 7967,
    "ĠDoll": 7968,
    "ĠDaniel": 7969,
    "ĠCroco": 7970,
    "ĠCrabby": 7971,
    "ĠCocoa": 7972,
    "ĠClimb": 7973,
    "ĠChirp": 7974,
    "ĠComet": 7975,
    "ĠBooks": 7976,
    "ĠBumpy": 7977,
    "ĠAngela": 7978,
    "Ġill": 7979,
    "years": 7980,
    "yl": 7981,
    "while": 7982,
    "ushing": 7983,
    "urple": 7984,
    "umphrey": 7985,
    "ums": 7986,
    "udrey": 7987,
    "stalk": 7988,
    "ssy": 7989,
    "roken": 7990,
    "rigued": 7991,
    "retty": 7992,
    "rab": 7993,
    "ounced": 7994,
    "ophia": 7995,
    "ongr": 7996,
    "onse": 7997,
    "onna": 7998,
    "omp": 7999,
    "ntil": 8000,
    "mbers": 8001,
    "keepers": 8002,
    "izziness": 8003,
    "iter": 8004,
    "irls": 8005,
    "inald": 8006,
    "icip": 8007,
    "ibby": 8008,
    "hings": 8009,
    "guess": 8010,
    "exi": 8011,
    "erms": 8012,
    "erk": 8013,
    "erious": 8014,
    "ering": 8015,
    "ending": 8016,
    "eeling": 8017,
    "driver": 8018,
    "ctar": 8019,
    "cused": 8020,
    "boat": 8021,
    "broken": 8022,
    "bi": 8023,
    "bage": 8024,
    "aya": 8025,
    "aturday": 8026,
    "atty": 8027,
    "asty": 8028,
    "arty": 8029,
    "apers": 8030,
    "apaya": 8031,
    "antha": 8032,
    "anwhile": 8033,
    "acing": 8034,
    "ais": 8035,
    "act": 8036,
    "Want": 8037,
    "Tilly": 8038,
    "Slow": 8039,
    "Rock": 8040,
    "RR": 8041,
    "Quick": 8042,
    "Pr": 8043,
    "Papa": 8044,
    "Only": 8045,
    "Olive": 8046,
    "Nothing": 8047,
    "Jolly": 8048,
    "Instead": 8049,
    "However": 8050,
    "Frank": 8051,
    "Dear": 8052,
    "Deal": 8053,
    "Birdy": 8054,
    "Behind": 8055,
    "Bop": 8056,
    "Albert": 8057,
    "====": 8058,
    ",'": 8059,
    "Ġwrinkled": 8060,
    "Ġwriter": 8061,
    "Ġwhales": 8062,
    "Ġwig": 8063,
    "Ġvisits": 8064,
    "Ġvisitor": 8065,
    "Ġvests": 8066,
    "Ġvehicles": 8067,
    "Ġtwinkle": 8068,
    "Ġtravelling": 8069,
    "Ġtoward": 8070,
    "Ġtoad": 8071,
    "Ġthroughout": 8072,
    "Ġthoughts": 8073,
    "Ġtapped": 8074,
    "Ġtuck": 8075,
    "Ġties": 8076,
    "Ġstreets": 8077,
    "Ġstirs": 8078,
    "Ġsternly": 8079,
    "Ġstun": 8080,
    "Ġstings": 8081,
    "Ġstall": 8082,
    "Ġstacked": 8083,
    "Ġsprinkled": 8084,
    "Ġsnorted": 8085,
    "Ġsimply": 8086,
    "Ġshall": 8087,
    "Ġsets": 8088,
    "Ġseagulls": 8089,
    "Ġseals": 8090,
    "Ġscurrying": 8091,
    "Ġscrewdriver": 8092,
    "Ġsadder": 8093,
    "Ġrunner": 8094,
    "Ġrods": 8095,
    "Ġrisks": 8096,
    "Ġreturning": 8097,
    "Ġresponse": 8098,
    "Ġrewards": 8099,
    "Ġreapp": 8100,
    "Ġraces": 8101,
    "Ġrotten": 8102,
    "Ġpresented": 8103,
    "Ġpreparing": 8104,
    "Ġpours": 8105,
    "Ġpolitely": 8106,
    "Ġplug": 8107,
    "Ġpens": 8108,
    "Ġpennies": 8109,
    "Ġpays": 8110,
    "Ġpanicked": 8111,
    "Ġpuff": 8112,
    "Ġowners": 8113,
    "Ġoutfits": 8114,
    "Ġobserving": 8115,
    "Ġnectar": 8116,
    "Ġnur": 8117,
    "Ġnasty": 8118,
    "Ġmesmerized": 8119,
    "Ġmembers": 8120,
    "Ġmayor": 8121,
    "Ġmagician": 8122,
    "Ġmitt": 8123,
    "Ġhissing": 8124,
    "Ġhesitant": 8125,
    "Ġhamm": 8126,
    "Ġgreeted": 8127,
    "Ġgrassy": 8128,
    "Ġglitt": 8129,
    "Ġgenie": 8130,
    "Ġgarbage": 8131,
    "Ġgonna": 8132,
    "Ġfloats": 8133,
    "Ġflaps": 8134,
    "Ġfishermen": 8135,
    "Ġfarmers": 8136,
    "Ġfaded": 8137,
    "Ġdriveway": 8138,
    "Ġdifferences": 8139,
    "Ġdemanding": 8140,
    "Ġdelayed": 8141,
    "Ġdangers": 8142,
    "Ġdamaged": 8143,
    "Ġdizziness": 8144,
    "Ġcutter": 8145,
    "Ġcreations": 8146,
    "Ġcops": 8147,
    "Ġconsider": 8148,
    "Ġconcer": 8149,
    "Ġcommun": 8150,
    "Ġcommon": 8151,
    "Ġcleared": 8152,
    "Ġclassmates": 8153,
    "Ġclue": 8154,
    "Ġcharacters": 8155,
    "Ġcafe": 8156,
    "Ġburst": 8157,
    "Ġbudge": 8158,
    "Ġbubb": 8159,
    "Ġbravest": 8160,
    "Ġbraver": 8161,
    "Ġbol": 8162,
    "Ġboards": 8163,
    "Ġblocked": 8164,
    "Ġbits": 8165,
    "Ġbeloved": 8166,
    "Ġbeanstalk": 8167,
    "Ġbeaver": 8168,
    "Ġbeast": 8169,
    "Ġbathed": 8170,
    "Ġaware": 8171,
    "Ġaren": 8172,
    "Ġanticip": 8173,
    "Ġannoying": 8174,
    "Ġallowing": 8175,
    "Ġaffect": 8176,
    "Ġacts": 8177,
    "Ġais": 8178,
    "ĠYog": 8179,
    "ĠWonder": 8180,
    "ĠUni": 8181,
    "ĠUntil": 8182,
    "ĠToy": 8183,
    "ĠTato": 8184,
    "ĠSwing": 8185,
    "ĠStan": 8186,
    "ĠSpinny": 8187,
    "ĠSlinky": 8188,
    "ĠShampoo": 8189,
    "ĠSeat": 8190,
    "ĠSk": 8191,
    "ĠSaturday": 8192,
    "ĠReginald": 8193,
    "ĠRoy": 8194,
    "ĠRalph": 8195,
    "ĠPl": 8196,
    "ĠOuch": 8197,
    "ĠOld": 8198,
    "ĠNumber": 8199,
    "ĠNavy": 8200,
    "ĠMic": 8201,
    "ĠLeopard": 8202,
    "ĠLuc": 8203,
    "ĠLauren": 8204,
    "ĠKelly": 8205,
    "ĠJudge": 8206,
    "ĠJoan": 8207,
    "ĠGiant": 8208,
    "ĠFlexible": 8209,
    "ĠFlappy": 8210,
    "ĠFlap": 8211,
    "ĠEddie": 8212,
    "ĠCross": 8213,
    "ĠCici": 8214,
    "ĠBucky": 8215,
    "ĠBad": 8216,
    "ĠApple": 8217,
    "ĠArm": 8218,
    "ĠAnt": 8219,
    "âĢ¦": 8220,
    "ylv": 8221,
    "ylvia": 8222,
    "water": 8223,
    "veral": 8224,
    "upin": 8225,
    "uggy": 8226,
    "uses": 8227,
    "sol": 8228,
    "sn": 8229,
    "rave": 8230,
    "rinky": 8231,
    "quet": 8232,
    "parent": 8233,
    "ouquet": 8234,
    "oochy": 8235,
    "olo": 8236,
    "ments": 8237,
    "lect": 8238,
    "laire": 8239,
    "line": 8240,
    "jack": 8241,
    "izzie": 8242,
    "ivia": 8243,
    "ironment": 8244,
    "immering": 8245,
    "illip": 8246,
    "ift": 8247,
    "iece": 8248,
    "ics": 8249,
    "ib": 8250,
    "hole": 8251,
    "giving": 8252,
    "esses": 8253,
    "erts": 8254,
    "elope": 8255,
    "elie": 8256,
    "date": 8257,
    "creams": 8258,
    "cloud": 8259,
    "ckless": 8260,
    "cted": 8261,
    "cent": 8262,
    "bird": 8263,
    "bed": 8264,
    "athan": 8265,
    "atitude": 8266,
    "asha": 8267,
    "anga": 8268,
    "acle": 8269,
    "acher": 8270,
    "aven": 8271,
    "Willow": 8272,
    "Uncle": 8273,
    "Trust": 8274,
    "Tw": 8275,
    "Sof": 8276,
    "Should": 8277,
    "Sadie": 8278,
    "Ralph": 8279,
    "Promise": 8280,
    "Mon": 8281,
    "Leave": 8282,
    "King": 8283,
    "Johny": 8284,
    "Isabella": 8285,
    "Hmm": 8286,
    "Goodnight": 8287,
    "Does": 8288,
    "Claire": 8289,
    "Both": 8290,
    "Binky": 8291,
    "Beth": 8292,
    "Ava": 8293,
    "Adam": 8294,
    "Ġyelped": 8295,
    "Ġwiser": 8296,
    "Ġwadd": 8297,
    "Ġvibr": 8298,
    "Ġunable": 8299,
    "Ġtraveling": 8300,
    "Ġtrading": 8301,
    "Ġtheat": 8302,
    "Ġterrified": 8303,
    "Ġtemperature": 8304,
    "Ġteachers": 8305,
    "Ġtale": 8306,
    "Ġsymbols": 8307,
    "Ġsyrup": 8308,
    "Ġsweetest": 8309,
    "Ġswallow": 8310,
    "Ġsupporting": 8311,
    "Ġsunflowers": 8312,
    "Ġstores": 8313,
    "Ġstomachs": 8314,
    "Ġstatues": 8315,
    "Ġsquealed": 8316,
    "Ġsprays": 8317,
    "Ġsnug": 8318,
    "Ġsnar": 8319,
    "Ġslithered": 8320,
    "Ġslips": 8321,
    "Ġskate": 8322,
    "Ġshines": 8323,
    "Ġshares": 8324,
    "Ġshorter": 8325,
    "Ġshh": 8326,
    "Ġseveral": 8327,
    "Ġscolds": 8328,
    "Ġscent": 8329,
    "Ġsailors": 8330,
    "Ġsailboat": 8331,
    "Ġsou": 8332,
    "Ġrustling": 8333,
    "Ġroars": 8334,
    "Ġrivers": 8335,
    "Ġrealizes": 8336,
    "Ġreckless": 8337,
    "Ġreass": 8338,
    "Ġraking": 8339,
    "Ġrack": 8340,
    "Ġquacking": 8341,
    "Ġpuzzled": 8342,
    "Ġpostc": 8343,
    "Ġplugged": 8344,
    "Ġpills": 8345,
    "Ġpermitted": 8346,
    "Ġperformer": 8347,
    "Ġperformance": 8348,
    "Ġpedaled": 8349,
    "Ġpacket": 8350,
    "Ġpouch": 8351,
    "Ġpant": 8352,
    "Ġopinions": 8353,
    "Ġoffering": 8354,
    "Ġnewspapers": 8355,
    "Ġnervously": 8356,
    "Ġmushy": 8357,
    "Ġmunching": 8358,
    "Ġmeowing": 8359,
    "Ġmaterials": 8360,
    "Ġmailing": 8361,
    "Ġmagazines": 8362,
    "Ġlungs": 8363,
    "Ġlunchtime": 8364,
    "Ġlongest": 8365,
    "Ġlun": 8366,
    "Ġjing": 8367,
    "Ġinvites": 8368,
    "Ġintrigued": 8369,
    "Ġhotter": 8370,
    "Ġhisses": 8371,
    "Ġhesitation": 8372,
    "Ġguards": 8373,
    "Ġgrandparent": 8374,
    "Ġgratitude": 8375,
    "Ġglows": 8376,
    "Ġgenerosity": 8377,
    "Ġgap": 8378,
    "Ġfunn": 8379,
    "Ġforgiveness": 8380,
    "Ġforgives": 8381,
    "Ġfocused": 8382,
    "Ġflavors": 8383,
    "Ġfist": 8384,
    "Ġexploration": 8385,
    "Ġexpress": 8386,
    "Ġexcept": 8387,
    "Ġenvelopes": 8388,
    "Ġenvironment": 8389,
    "Ġencountered": 8390,
    "Ġearned": 8391,
    "Ġeld": 8392,
    "Ġdressing": 8393,
    "Ġdreamt": 8394,
    "Ġdollars": 8395,
    "Ġdisturbing": 8396,
    "Ġdisagre": 8397,
    "Ġdigs": 8398,
    "Ġdesserts": 8399,
    "Ġdespite": 8400,
    "Ġdefe": 8401,
    "Ġcupcakes": 8402,
    "Ġcuddles": 8403,
    "Ġcrowd": 8404,
    "Ġcroaked": 8405,
    "Ġcorns": 8406,
    "Ġconvinced": 8407,
    "Ġcomforting": 8408,
    "Ġcollap": 8409,
    "Ġcloudy": 8410,
    "Ġcloths": 8411,
    "Ġclosing": 8412,
    "Ġclerk": 8413,
    "Ġchoosing": 8414,
    "Ġchewy": 8415,
    "Ġcheat": 8416,
    "Ġcertain": 8417,
    "Ġbud": 8418,
    "Ġbirdhouse": 8419,
    "Ġbeaming": 8420,
    "Ġbatt": 8421,
    "Ġbaskets": 8422,
    "Ġbouquet": 8423,
    "Ġbound": 8424,
    "Ġartist": 8425,
    "Ġappreciation": 8426,
    "Ġanticipation": 8427,
    "Ġamused": 8428,
    "ĠZoey": 8429,
    "ĠWilliam": 8430,
    "ĠWhip": 8431,
    "ĠWait": 8432,
    "ĠViolet": 8433,
    "ĠTweety": 8434,
    "ĠThermometer": 8435,
    "ĠTick": 8436,
    "ĠTibby": 8437,
    "ĠShiny": 8438,
    "ĠRobot": 8439,
    "ĠReady": 8440,
    "ĠRazor": 8441,
    "ĠQuack": 8442,
    "ĠPenelope": 8443,
    "ĠPeep": 8444,
    "ĠPop": 8445,
    "ĠPol": 8446,
    "ĠPlaying": 8447,
    "ĠPippy": 8448,
    "ĠOnly": 8449,
    "ĠOp": 8450,
    "ĠOh": 8451,
    "ĠNate": 8452,
    "ĠMarsh": 8453,
    "ĠMoppy": 8454,
    "ĠMina": 8455,
    "ĠMilo": 8456,
    "ĠLaura": 8457,
    "ĠLexi": 8458,
    "ĠLand": 8459,
    "ĠJune": 8460,
    "ĠHatty": 8461,
    "ĠFun": 8462,
    "ĠFix": 8463,
    "ĠEverybody": 8464,
    "ĠDust": 8465,
    "ĠDespite": 8466,
    "ĠChug": 8467,
    "ĠChuck": 8468,
    "ĠChip": 8469,
    "ĠCle": 8470,
    "ĠCaterpillar": 8471,
    "ĠBrush": 8472,
    "ĠBobba": 8473,
    "ĠBrave": 8474,
    "ĠAuntie": 8475,
    "ĠAmanda": 8476,
    "ĠAudrey": 8477,
    "ĠAly": 8478,
    "ĠAbi": 8479,
    "Ġ''": 8480,
    "Ġ5": 8481,
    "yan": 8482,
    "weed": 8483,
    "ullaby": 8484,
    "ula": 8485,
    "ugging": 8486,
    "uise": 8487,
    "stick": 8488,
    "ssa": 8489,
    "snap": 8490,
    "sers": 8491,
    "rya": 8492,
    "riendship": 8493,
    "pop": 8494,
    "ots": 8495,
    "otato": 8496,
    "ortunately": 8497,
    "ordan": 8498,
    "ookie": 8499,
    "ongrat": 8500,
    "ongratul": 8501,
    "onst": 8502,
    "oint": 8503,
    "oever": 8504,
    "occo": 8505,
    "off": 8506,
    "ming": 8507,
    "mate": 8508,
    "lor": 8509,
    "ita": 8510,
    "ircle": 8511,
    "ipes": 8512,
    "inted": 8513,
    "ildren": 8514,
    "ige": 8515,
    "ienced": 8516,
    "idence": 8517,
    "iden": 8518,
    "icent": 8519,
    "ivery": 8520,
    "fficer": 8521,
    "fl": 8522,
    "fire": 8523,
    "ets": 8524,
    "eresa": 8525,
    "emies": 8526,
    "elina": 8527,
    "earl": 8528,
    "cri": 8529,
    "bbers": 8530,
    "bell": 8531,
    "bank": 8532,
    "azy": 8533,
    "att": 8534,
    "assport": 8535,
    "asers": 8536,
    "armony": 8537,
    "arlings": 8538,
    "angles": 8539,
    "ampered": 8540,
    "amedics": 8541,
    "aisies": 8542,
    "agnet": 8543,
    "abelle": 8544,
    "Zoe": 8545,
    "Wake": 8546,
    "Suzie": 8547,
    "Someone": 8548,
    "Sofia": 8549,
    "Snow": 8550,
    "Sun": 8551,
    "Squeaky": 8552,
    "Splash": 8553,
    "Speedy": 8554,
    "Robert": 8555,
    "Robby": 8556,
    "Mother": 8557,
    "Mel": 8558,
    "Kiki": 8559,
    "Kids": 8560,
    "Karen": 8561,
    "Jess": 8562,
    "Jacob": 8563,
    "Ice": 8564,
    "Hoppy": 8565,
    "Ho": 8566,
    "Got": 8567,
    "Gogo": 8568,
    "Gigi": 8569,
    "Froggy": 8570,
    "Finny": 8571,
    "Eat": 8572,
    "Danger": 8573,
    "Carl": 8574,
    "Anne": 8575,
    "Abigail": 8576,
    "ĠâĢĶ": 8577,
    "Ġwinks": 8578,
    "Ġwhispering": 8579,
    "Ġwhimpered": 8580,
    "Ġwhiskers": 8581,
    "Ġwhir": 8582,
    "Ġwhine": 8583,
    "Ġwelcoming": 8584,
    "Ġwashes": 8585,
    "Ġwarmly": 8586,
    "Ġvibrant": 8587,
    "Ġunwrap": 8588,
    "Ġunderstands": 8589,
    "Ġundone": 8590,
    "Ġtype": 8591,
    "Ġtunes": 8592,
    "Ġtriangles": 8593,
    "Ġtravels": 8594,
    "Ġtowns": 8595,
    "Ġtoolbox": 8596,
    "Ġtidied": 8597,
    "Ġthundercloud": 8598,
    "Ġtheatre": 8599,
    "Ġtentacles": 8600,
    "Ġteams": 8601,
    "Ġswimsuits": 8602,
    "Ġsuns": 8603,
    "Ġsuits": 8604,
    "Ġsuitcase": 8605,
    "Ġstyles": 8606,
    "Ġstrum": 8607,
    "Ġstorms": 8608,
    "Ġsteering": 8609,
    "Ġspoiling": 8610,
    "Ġspy": 8611,
    "Ġsoot": 8612,
    "Ġsnowfl": 8613,
    "Ġsmoother": 8614,
    "Ġsmartest": 8615,
    "Ġsleds": 8616,
    "Ġsituations": 8617,
    "Ġsirens": 8618,
    "Ġshrank": 8619,
    "Ġshinier": 8620,
    "Ġseconds": 8621,
    "Ġseaweed": 8622,
    "Ġscraped": 8623,
    "Ġscampered": 8624,
    "Ġsalon": 8625,
    "Ġrobe": 8626,
    "Ġrobbers": 8627,
    "Ġriverbank": 8628,
    "Ġriches": 8629,
    "Ġresisted": 8630,
    "Ġrepairs": 8631,
    "Ġrefreshing": 8632,
    "Ġrealise": 8633,
    "Ġreun": 8634,
    "Ġrely": 8635,
    "Ġrushing": 8636,
    "Ġquarreled": 8637,
    "Ġpupils": 8638,
    "Ġproviding": 8639,
    "Ġpressing": 8640,
    "Ġpractised": 8641,
    "Ġprove": 8642,
    "Ġprank": 8643,
    "Ġplaydate": 8644,
    "Ġplans": 8645,
    "Ġpecks": 8646,
    "Ġpassen": 8647,
    "Ġparamedics": 8648,
    "Ġpuck": 8649,
    "Ġpound": 8650,
    "Ġowls": 8651,
    "Ġobeyed": 8652,
    "Ġodd": 8653,
    "Ġnibbled": 8654,
    "Ġniece": 8655,
    "Ġmugs": 8656,
    "Ġmixture": 8657,
    "Ġmessed": 8658,
    "Ġmedals": 8659,
    "Ġmer": 8660,
    "Ġlumberjack": 8661,
    "Ġluckily": 8662,
    "Ġlocks": 8663,
    "Ġlectures": 8664,
    "Ġlullaby": 8665,
    "Ġjoyfully": 8666,
    "Ġjets": 8667,
    "Ġinjured": 8668,
    "Ġhunters": 8669,
    "Ġhiss": 8670,
    "Ġhippos": 8671,
    "Ġheron": 8672,
    "Ġhelicopters": 8673,
    "Ġheartbroken": 8674,
    "Ġheaven": 8675,
    "Ġhatch": 8676,
    "Ġhabit": 8677,
    "Ġguarding": 8678,
    "Ġguided": 8679,
    "Ġguesses": 8680,
    "Ġgrumbled": 8681,
    "Ġglanced": 8682,
    "Ġgesture": 8683,
    "Ġglee": 8684,
    "Ġfoggy": 8685,
    "Ġflips": 8686,
    "Ġfixer": 8687,
    "Ġfires": 8688,
    "Ġfinishing": 8689,
    "Ġfinal": 8690,
    "Ġfacts": 8691,
    "Ġfaith": 8692,
    "Ġfailed": 8693,
    "Ġfulf": 8694,
    "Ġexplains": 8695,
    "Ġexplo": 8696,
    "Ġexperienced": 8697,
    "Ġexpecting": 8698,
    "Ġenemies": 8699,
    "Ġechoed": 8700,
    "Ġdoorbell": 8701,
    "Ġdisobeyed": 8702,
    "Ġdisagreement": 8703,
    "Ġdigger": 8704,
    "Ġdifferently": 8705,
    "Ġdesigning": 8706,
    "Ġdemonst": 8707,
    "Ġdelaying": 8708,
    "Ġdelivery": 8709,
    "Ġdaddies": 8710,
    "Ġding": 8711,
    "Ġdarlings": 8712,
    "Ġdaisies": 8713,
    "Ġcrowns": 8714,
    "Ġcrocodiles": 8715,
    "Ġcrickets": 8716,
    "Ġcreamy": 8717,
    "Ġcrashing": 8718,
    "Ġcovering": 8719,
    "Ġcousins": 8720,
    "Ġcottage": 8721,
    "Ġconduct": 8722,
    "Ġconcerned": 8723,
    "Ġcompete": 8724,
    "Ġcoloring": 8725,
    "Ġclut": 8726,
    "Ġchews": 8727,
    "Ġcells": 8728,
    "Ġcarve": 8729,
    "Ġcables": 8730,
    "Ġcausing": 8731,
    "Ġbulbs": 8732,
    "Ġbolt": 8733,
    "Ġblooms": 8734,
    "Ġblur": 8735,
    "Ġblades": 8736,
    "Ġblade": 8737,
    "Ġbendy": 8738,
    "Ġbends": 8739,
    "Ġbless": 8740,
    "Ġattend": 8741,
    "Ġarr": 8742,
    "Ġanswering": 8743,
    "Ġannounced": 8744,
    "Ġangrily": 8745,
    "Ġangrier": 8746,
    "Ġalley": 8747,
    "Ġalthough": 8748,
    "Ġaisle": 8749,
    "Ġachieved": 8750,
    "Ġability": 8751,
    "ĠWhoever": 8752,
    "ĠWise": 8753,
    "ĠWell": 8754,
    "ĠWar": 8755,
    "ĠVolly": 8756,
    "ĠTrucky": 8757,
    "ĠTodd": 8758,
    "ĠTy": 8759,
    "ĠTock": 8760,
    "ĠTizzy": 8761,
    "ĠTeresa": 8762,
    "ĠSunshine": 8763,
    "ĠStealing": 8764,
    "ĠSquare": 8765,
    "ĠSpicy": 8766,
    "ĠSpace": 8767,
    "ĠSnowball": 8768,
    "ĠSkip": 8769,
    "ĠSummer": 8770,
    "ĠSince": 8771,
    "ĠRude": 8772,
    "ĠRoll": 8773,
    "ĠRyan": 8774,
    "ĠRita": 8775,
    "ĠRicky": 8776,
    "ĠRh": 8777,
    "ĠPrint": 8778,
    "ĠPhillip": 8779,
    "ĠPurple": 8780,
    "ĠPoint": 8781,
    "ĠPet": 8782,
    "ĠPassport": 8783,
    "ĠParty": 8784,
    "ĠPapaya": 8785,
    "ĠOxygen": 8786,
    "ĠOfficer": 8787,
    "ĠMixie": 8788,
    "ĠMelon": 8789,
    "ĠMaya": 8790,
    "ĠMuggy": 8791,
    "ĠMs": 8792,
    "ĠMore": 8793,
    "ĠMake": 8794,
    "ĠMaddie": 8795,
    "ĠLaurie": 8796,
    "ĠLots": 8797,
    "ĠLazy": 8798,
    "ĠKanga": 8799,
    "ĠJaney": 8800,
    "ĠJumpy": 8801,
    "ĠIce": 8802,
    "ĠHello": 8803,
    "ĠGrand": 8804,
    "ĠFlick": 8805,
    "ĠFriendship": 8806,
    "ĠFind": 8807,
    "ĠFair": 8808,
    "ĠDull": 8809,
    "ĠDot": 8810,
    "ĠDezi": 8811,
    "ĠClouds": 8812,
    "ĠCara": 8813,
    "ĠCable": 8814,
    "ĠBussy": 8815,
    "ĠBooker": 8816,
    "ĠBobbie": 8817,
    "ĠBirds": 8818,
    "ĠBibo": 8819,
    "ĠBenji": 8820,
    "ĠBeepy": 8821,
    "ĠBand": 8822,
    "ĠAlbert": 8823,
    "ĠArya": 8824,
    "ĠAc": 8825,
    "âĢĿ,": 8826,
    "wen": 8827,
    "vered": 8828,
    "venir": 8829,
    "undred": 8830,
    "unched": 8831,
    "ugar": 8832,
    "ubber": 8833,
    "uild": 8834,
    "uard": 8835,
    "uardo": 8836,
    "tha": 8837,
    "sel": 8838,
    "she": 8839,
    "sack": 8840,
    "roccoli": 8841,
    "rnie": 8842,
    "rints": 8843,
    "rest": 8844,
    "repe": 8845,
    "repeat": 8846,
    "rees": 8847,
    "rough": 8848,
    "rons": 8849,
    "rings": 8850,
    "rina": 8851,
    "ration": 8852,
    "quar": 8853,
    "quarium": 8854,
    "peed": 8855,
    "prints": 8856,
    "per": 8857,
    "ouraged": 8858,
    "orence": 8859,
    "opy": 8860,
    "ooks": 8861,
    "onnie": 8862,
    "okay": 8863,
    "ndles": 8864,
    "nor": 8865,
    "ne": 8866,
    "mel": 8867,
    "melon": 8868,
    "mar": 8869,
    "jamin": 8870,
    "ives": 8871,
    "ippers": 8872,
    "incy": 8873,
    "imals": 8874,
    "iggled": 8875,
    "igger": 8876,
    "ienna": 8877,
    "ieves": 8878,
    "icola": 8879,
    "icious": 8880,
    "icate": 8881,
    "ibil": 8882,
    "guard": 8883,
    "exit": 8884,
    "etchup": 8885,
    "essy": 8886,
    "ellyfish": 8887,
    "elieve": 8888,
    "elix": 8889,
    "eading": 8890,
    "even": 8891,
    "ese": 8892,
    "doo": 8893,
    "dog": 8894,
    "dmother": 8895,
    "dinky": 8896,
    "dges": 8897,
    "dad": 8898,
    "ctopuses": 8899,
    "couraged": 8900,
    "can": 8901,
    "cake": 8902,
    "balls": 8903,
    "aty": 8904,
    "ashing": 8905,
    "artha": 8906,
    "artled": 8907,
    "ansform": 8908,
    "andel": 8909,
    "amps": 8910,
    "ali": 8911,
    "ager": 8912,
    "acy": 8913,
    "accoon": 8914,
    "abrina": 8915,
    "aige": 8916,
    "Wiggly": 8917,
    "Two": 8918,
    "Theo": 8919,
    "Ted": 8920,
    "Tara": 8921,
    "Still": 8922,
    "Snap": 8923,
    "Shrinky": 8924,
    "Share": 8925,
    "Sadly": 8926,
    "Surrender": 8927,
    "Rabbit": 8928,
    "Polly": 8929,
    "Outside": 8930,
    "Open": 8931,
    "Nice": 8932,
    "Near": 8933,
    "Meanwhile": 8934,
    "Maria": 8935,
    "Martha": 8936,
    "Maddie": 8937,
    "Kelly": 8938,
    "Jackie": 8939,
    "Joy": 8940,
    "Jay": 8941,
    "Isn": 8942,
    "Hope": 8943,
    "Friends": 8944,
    "Fish": 8945,
    "En": 8946,
    "Duck": 8947,
    "Chloe": 8948,
    "Curious": 8949,
    "Caw": 8950,
    "Catch": 8951,
    "Bug": 8952,
    "Bo": 8953,
    "Belle": 8954,
    "Arthur": 8955,
    "Any": 8956,
    "',": 8957,
    "Ġzookeepers": 8958,
    "Ġwrapper": 8959,
    "Ġwildf": 8960,
    "Ġweighs": 8961,
    "Ġwebs": 8962,
    "Ġweaker": 8963,
    "Ġwatermelon": 8964,
    "Ġwarri": 8965,
    "Ġwaistband": 8966,
    "Ġuntw": 8967,
    "Ġuntangle": 8968,
    "Ġtreated": 8969,
    "Ġtreas": 8970,
    "Ġtransform": 8971,
    "Ġtoucan": 8972,
    "Ġtingling": 8973,
    "Ġthanking": 8974,
    "Ġthieves": 8975,
    "Ġtesting": 8976,
    "Ġtempted": 8977,
    "Ġswitches": 8978,
    "Ġswaying": 8979,
    "Ġstrolled": 8980,
    "Ġstretches": 8981,
    "Ġstomped": 8982,
    "Ġstepping": 8983,
    "Ġstains": 8984,
    "Ġsquawked": 8985,
    "Ġspilling": 8986,
    "Ġspies": 8987,
    "Ġsped": 8988,
    "Ġsouvenir": 8989,
    "Ġsnowflakes": 8990,
    "Ġsnarled": 8991,
    "Ġsnapping": 8992,
    "Ġslug": 8993,
    "Ġskateboard": 8994,
    "Ġsilent": 8995,
    "Ġshooed": 8996,
    "Ġseeking": 8997,
    "Ġscenery": 8998,
    "Ġscre": 8999,
    "Ġsavanna": 9000,
    "Ġreunited": 9001,
    "Ġrecipe": 9002,
    "Ġruff": 9003,
    "Ġrout": 9004,
    "Ġrises": 9005,
    "Ġrider": 9006,
    "Ġquilt": 9007,
    "Ġprotects": 9008,
    "Ġposts": 9009,
    "Ġpoppies": 9010,
    "Ġplumber": 9011,
    "Ġpeels": 9012,
    "Ġpeeks": 9013,
    "Ġpearls": 9014,
    "Ġparticularly": 9015,
    "Ġpoop": 9016,
    "Ġpasses": 9017,
    "Ġotherwise": 9018,
    "Ġostriches": 9019,
    "Ġopt": 9020,
    "Ġonline": 9021,
    "Ġoccasions": 9022,
    "Ġoccasion": 9023,
    "Ġobst": 9024,
    "Ġnovels": 9025,
    "Ġnightfall": 9026,
    "Ġneighbours": 9027,
    "Ġminds": 9028,
    "Ġmesmerised": 9029,
    "Ġmelts": 9030,
    "Ġmeatballs": 9031,
    "Ġmattresses": 9032,
    "Ġmur": 9033,
    "Ġmoo": 9034,
    "Ġmate": 9035,
    "Ġlifeguard": 9036,
    "Ġlessons": 9037,
    "Ġlearner": 9038,
    "Ġlevel": 9039,
    "Ġlamps": 9040,
    "Ġlaz": 9041,
    "Ġlur": 9042,
    "Ġlimp": 9043,
    "Ġketchup": 9044,
    "Ġintroducing": 9045,
    "Ġintelligence": 9046,
    "Ġintently": 9047,
    "Ġinstrument": 9048,
    "Ġhumming": 9049,
    "Ġhost": 9050,
    "Ġheights": 9051,
    "Ġhearing": 9052,
    "Ġhanding": 9053,
    "Ġhamster": 9054,
    "Ġhaw": 9055,
    "Ġhuff": 9056,
    "Ġhoof": 9057,
    "Ġgodmother": 9058,
    "Ġgiants": 9059,
    "Ġgears": 9060,
    "Ġgerms": 9061,
    "Ġfreezing": 9062,
    "Ġfreedom": 9063,
    "Ġforests": 9064,
    "Ġforts": 9065,
    "Ġfootprints": 9066,
    "Ġfluttering": 9067,
    "Ġfirefighter": 9068,
    "Ġfences": 9069,
    "Ġfet": 9070,
    "Ġexperiences": 9071,
    "Ġexamining": 9072,
    "Ġexch": 9073,
    "Ġerasers": 9074,
    "Ġentering": 9075,
    "Ġenjoyable": 9076,
    "Ġendings": 9077,
    "Ġemerged": 9078,
    "Ġembra": 9079,
    "Ġearrings": 9080,
    "Ġdumped": 9081,
    "Ġdrip": 9082,
    "Ġdrift": 9083,
    "Ġdodging": 9084,
    "Ġdodged": 9085,
    "Ġdives": 9086,
    "Ġdisguise": 9087,
    "Ġdisappears": 9088,
    "Ġdemonstrated": 9089,
    "Ġdips": 9090,
    "Ġdet": 9091,
    "Ġdep": 9092,
    "Ġdashed": 9093,
    "Ġdandel": 9094,
    "Ġcruel": 9095,
    "Ġcoughed": 9096,
    "Ġcopied": 9097,
    "Ġcontainer": 9098,
    "Ġconfidence": 9099,
    "Ġconductor": 9100,
    "Ġconcent": 9101,
    "Ġcomputers": 9102,
    "Ġcombing": 9103,
    "Ġclover": 9104,
    "Ġclip": 9105,
    "Ġcherish": 9106,
    "Ġchecking": 9107,
    "Ġcharge": 9108,
    "Ġchatter": 9109,
    "Ġcalmly": 9110,
    "Ġcongratul": 9111,
    "Ġburying": 9112,
    "Ġboil": 9113,
    "Ġbluebird": 9114,
    "Ġbills": 9115,
    "Ġbeautif": 9116,
    "Ġbattle": 9117,
    "Ġbuddy": 9118,
    "Ġborn": 9119,
    "Ġawful": 9120,
    "Ġattem": 9121,
    "Ġattack": 9122,
    "Ġastronauts": 9123,
    "Ġapproach": 9124,
    "Ġapplauding": 9125,
    "Ġaprons": 9126,
    "Ġairplanes": 9127,
    "Ġages": 9128,
    "Ġafford": 9129,
    "Ġafar": 9130,
    "Ġaddress": 9131,
    "Ġaccomplished": 9132,
    "Ġaquarium": 9133,
    "ĠYogi": 9134,
    "ĠWooly": 9135,
    "ĠWolf": 9136,
    "ĠTeacher": 9137,
    "ĠTra": 9138,
    "ĠTip": 9139,
    "ĠSwitch": 9140,
    "ĠSundays": 9141,
    "ĠStill": 9142,
    "ĠSpiky": 9143,
    "ĠSlide": 9144,
    "ĠSamantha": 9145,
    "ĠSophia": 9146,
    "ĠSly": 9147,
    "ĠRosa": 9148,
    "ĠRainbow": 9149,
    "ĠRae": 9150,
    "ĠRubber": 9151,
    "ĠRolly": 9152,
    "ĠRick": 9153,
    "ĠQueeny": 9154,
    "ĠPupil": 9155,
    "ĠPuss": 9156,
    "ĠPrinty": 9157,
    "ĠPotato": 9158,
    "ĠPoochy": 9159,
    "ĠOrin": 9160,
    "ĠOx": 9161,
    "ĠNurse": 9162,
    "ĠMonkey": 9163,
    "ĠMartha": 9164,
    "ĠMagnet": 9165,
    "ĠLupin": 9166,
    "ĠLumber": 9167,
    "ĠLime": 9168,
    "ĠLife": 9169,
    "ĠKevin": 9170,
    "ĠJohnson": 9171,
    "ĠJemma": 9172,
    "ĠJellyfish": 9173,
    "ĠJed": 9174,
    "ĠHerbie": 9175,
    "ĠHerb": 9176,
    "ĠHumphrey": 9177,
    "ĠHank": 9178,
    "ĠGrumpy": 9179,
    "ĠGinny": 9180,
    "ĠGill": 9181,
    "ĠFredrick": 9182,
    "ĠFlorence": 9183,
    "ĠFelix": 9184,
    "ĠEduardo": 9185,
    "ĠDogs": 9186,
    "ĠDeal": 9187,
    "ĠClimbing": 9188,
    "ĠChris": 9189,
    "ĠChair": 9190,
    "ĠCarlos": 9191,
    "ĠCars": 9192,
    "ĠCory": 9193,
    "ĠCookie": 9194,
    "ĠClive": 9195,
    "ĠCelia": 9196,
    "ĠCarmen": 9197,
    "ĠBury": 9198,
    "ĠBundles": 9199,
    "ĠBreezy": 9200,
    "ĠBeeBee": 9201,
    "ĠBecky": 9202,
    "ĠBarky": 9203,
    "ĠBallie": 9204,
    "ĠBroccoli": 9205,
    "ĠBones": 9206,
    "ĠBessy": 9207,
    "ĠBang": 9208,
    "ĠAnnabelle": 9209,
    "ĠAlyssa": 9210,
    "Ġicky": 9211,
    "wee": 9212,
    "vas": 9213,
    "utely": 9214,
    "ussel": 9215,
    "usp": 9216,
    "uspicious": 9217,
    "usic": 9218,
    "upine": 9219,
    "uss": 9220,
    "tail": 9221,
    "stered": 9222,
    "storm": 9223,
    "solutely": 9224,
    "shop": 9225,
    "sey": 9226,
    "rett": 9227,
    "rent": 9228,
    "rances": 9229,
    "quee": 9230,
    "queeze": 9231,
    "peck": 9232,
    "pecker": 9233,
    "ousy": 9234,
    "ouple": 9235,
    "oula": 9236,
    "ouched": 9237,
    "oscope": 9238,
    "orth": 9239,
    "oray": 9240,
    "oebe": 9241,
    "oving": 9242,
    "of": 9243,
    "oard": 9244,
    "nif": 9245,
    "meow": 9246,
    "moo": 9247,
    "miest": 9248,
    "lescope": 9249,
    "lectric": 9250,
    "long": 9251,
    "lo": 9252,
    "lared": 9253,
    "lap": 9254,
    "kie": 9255,
    "ka": 9256,
    "just": 9257,
    "itive": 9258,
    "iran": 9259,
    "inct": 9260,
    "immi": 9261,
    "iment": 9262,
    "ilted": 9263,
    "ighting": 9264,
    "idier": 9265,
    "ico": 9266,
    "icated": 9267,
    "gets": 9268,
    "getic": 9269,
    "faction": 9270,
    "everse": 9271,
    "ethoscope": 9272,
    "etah": 9273,
    "erf": 9274,
    "enee": 9275,
    "ecc": 9276,
    "ecca": 9277,
    "ein": 9278,
    "cidents": 9279,
    "chard": 9280,
    "cupine": 9281,
    "cled": 9282,
    "cat": 9283,
    "boards": 9284,
    "beh": 9285,
    "bum": 9286,
    "build": 9287,
    "asketball": 9288,
    "asant": 9289,
    "arrin": 9290,
    "arley": 9291,
    "apons": 9292,
    "apes": 9293,
    "antr": 9294,
    "antelle": 9295,
    "antastic": 9296,
    "andas": 9297,
    "anion": 9298,
    "ampi": 9299,
    "amboo": 9300,
    "allows": 9301,
    "alf": 9302,
    "aint": 9303,
    "ails": 9304,
    "Zigzag": 9305,
    "Without": 9306,
    "William": 9307,
    "Wednesday": 9308,
    "Toot": 9309,
    "Tree": 9310,
    "Toto": 9311,
    "Tony": 9312,
    "Tam": 9313,
    "Stand": 9314,
    "Snowy": 9315,
    "Slowly": 9316,
    "Rover": 9317,
    "Ruff": 9318,
    "Pam": 9319,
    "Nora": 9320,
    "Nina": 9321,
    "Never": 9322,
    "Nate": 9323,
    "Megan": 9324,
    "Mouse": 9325,
    "Mint": 9326,
    "Milo": 9327,
    "Magic": 9328,
    "Luke": 9329,
    "Jonny": 9330,
    "June": 9331,
    "Janie": 9332,
    "Hippy": 9333,
    "Honey": 9334,
    "Grab": 9335,
    "Foxy": 9336,
    "Freeze": 9337,
    "Fortunately": 9338,
    "Fl": 9339,
    "Davey": 9340,
    "Down": 9341,
    "Ding": 9342,
    "Cheap": 9343,
    "Crab": 9344,
    "Candy": 9345,
    "Brown": 9346,
    "Brad": 9347,
    "Brrr": 9348,
    "Bless": 9349,
    "Back": 9350,
    "Baa": 9351,
    "Amanda": 9352,
    "Along": 9353,
    "Ahoy": 9354,
    "Aw": 9355,
    "Arrr": 9356,
    "Ġzipping": 9357,
    "Ġyummiest": 9358,
    "Ġworkshop": 9359,
    "Ġwoodpecker": 9360,
    "Ġwolves": 9361,
    "Ġwoken": 9362,
    "Ġwindowsill": 9363,
    "Ġwinds": 9364,
    "Ġwildflowers": 9365,
    "Ġwhoever": 9366,
    "Ġwaddled": 9367,
    "Ġwiggly": 9368,
    "Ġwicked": 9369,
    "Ġvalleys": 9370,
    "Ġurging": 9371,
    "Ġupside": 9372,
    "Ġunwrapped": 9373,
    "Ġunderwater": 9374,
    "Ġtwenty": 9375,
    "Ġtreasured": 9376,
    "Ġtransformed": 9377,
    "Ġtrigger": 9378,
    "Ġtours": 9379,
    "Ġtossing": 9380,
    "Ġtimid": 9381,
    "Ġtests": 9382,
    "Ġtents": 9383,
    "Ġtelescope": 9384,
    "Ġtaps": 9385,
    "Ġtumbling": 9386,
    "Ġter": 9387,
    "Ġtend": 9388,
    "Ġtantr": 9389,
    "Ġsweeter": 9390,
    "Ġswans": 9391,
    "Ġsurrendered": 9392,
    "Ġsuccessfully": 9393,
    "Ġstunning": 9394,
    "Ġstrokes": 9395,
    "Ġstretchy": 9396,
    "Ġstored": 9397,
    "Ġstaffs": 9398,
    "Ġstacking": 9399,
    "Ġstethoscope": 9400,
    "Ġsqueezes": 9401,
    "Ġsquished": 9402,
    "Ġspaces": 9403,
    "Ġsnowing": 9404,
    "Ġsneezes": 9405,
    "Ġsneaks": 9406,
    "Ġsnipped": 9407,
    "Ġsnip": 9408,
    "Ġsleeps": 9409,
    "Ġslaps": 9410,
    "Ġsincere": 9411,
    "Ġshrugs": 9412,
    "Ġshrunk": 9413,
    "Ġshoots": 9414,
    "Ġshoo": 9415,
    "Ġshatter": 9416,
    "Ġsettling": 9417,
    "Ġservant": 9418,
    "Ġsandcastles": 9419,
    "Ġsacks": 9420,
    "Ġrowing": 9421,
    "Ġroofs": 9422,
    "Ġrestoring": 9423,
    "Ġresponded": 9424,
    "Ġrescuing": 9425,
    "Ġreappeared": 9426,
    "Ġreality": 9427,
    "Ġrebuild": 9428,
    "Ġrags": 9429,
    "Ġraising": 9430,
    "Ġprotection": 9431,
    "Ġproved": 9432,
    "Ġprod": 9433,
    "Ġprocess": 9434,
    "Ġpostman": 9435,
    "Ġpossession": 9436,
    "Ġporcupine": 9437,
    "Ġponytail": 9438,
    "Ġpose": 9439,
    "Ġplank": 9440,
    "Ġpilots": 9441,
    "Ġpersistence": 9442,
    "Ġpedaling": 9443,
    "Ġpeep": 9444,
    "Ġpastor": 9445,
    "Ġpipes": 9446,
    "Ġpandas": 9447,
    "Ġowns": 9448,
    "Ġoutfit": 9449,
    "Ġoutcome": 9450,
    "Ġorders": 9451,
    "Ġorchard": 9452,
    "Ġoctopuses": 9453,
    "Ġnightmares": 9454,
    "Ġnights": 9455,
    "Ġnibble": 9456,
    "Ġnecks": 9457,
    "Ġmurky": 9458,
    "Ġmustered": 9459,
    "Ġmindful": 9460,
    "Ġmessages": 9461,
    "Ġmerma": 9462,
    "Ġmaterial": 9463,
    "Ġmatey": 9464,
    "Ġmats": 9465,
    "Ġmarve": 9466,
    "Ġmailboxes": 9467,
    "Ġmagnif": 9468,
    "Ġlurking": 9469,
    "Ġleans": 9470,
    "Ġleaking": 9471,
    "Ġlayer": 9472,
    "Ġlawyers": 9473,
    "Ġlaws": 9474,
    "Ġlace": 9475,
    "Ġlush": 9476,
    "Ġkneeling": 9477,
    "Ġkissing": 9478,
    "Ġkeyhole": 9479,
    "Ġkayaks": 9480,
    "Ġkilled": 9481,
    "Ġjacks": 9482,
    "Ġjugg": 9483,
    "Ġitches": 9484,
    "Ġinform": 9485,
    "Ġinter": 9486,
    "Ġhorri": 9487,
    "Ġhooks": 9488,
    "Ġhonking": 9489,
    "Ġholidays": 9490,
    "Ġhoe": 9491,
    "Ġheadache": 9492,
    "Ġhey": 9493,
    "Ġhawk": 9494,
    "Ġhardest": 9495,
    "Ġhangers": 9496,
    "Ġhaircutter": 9497,
    "Ġhundred": 9498,
    "Ġhood": 9499,
    "Ġguilt": 9500,
    "Ġgrandparents": 9501,
    "Ġgoodness": 9502,
    "Ġgooey": 9503,
    "Ġglittering": 9504,
    "Ġglittered": 9505,
    "Ġfrustration": 9506,
    "Ġflashes": 9507,
    "Ġflashed": 9508,
    "Ġfetched": 9509,
    "Ġfacing": 9510,
    "Ġfuzzy": 9511,
    "Ġfired": 9512,
    "Ġfif": 9513,
    "Ġferry": 9514,
    "Ġfantastic": 9515,
    "Ġfade": 9516,
    "Ġexperiment": 9517,
    "Ġexpert": 9518,
    "Ġexams": 9519,
    "Ġengines": 9520,
    "Ġenergetic": 9521,
    "Ġelbows": 9522,
    "Ġdrill": 9523,
    "Ġdrawers": 9524,
    "Ġdrown": 9525,
    "Ġdiscussing": 9526,
    "Ġdiscoveries": 9527,
    "Ġdisappoint": 9528,
    "Ġdisagreeing": 9529,
    "Ġdiscouraged": 9530,
    "Ġdiamonds": 9531,
    "Ġdiv": 9532,
    "Ġdescri": 9533,
    "Ġdeclared": 9534,
    "Ġdandelion": 9535,
    "Ġcustomers": 9536,
    "Ġcurrent": 9537,
    "Ġcubs": 9538,
    "Ġcreep": 9539,
    "Ġcrushed": 9540,
    "Ġcowboys": 9541,
    "Ġcotton": 9542,
    "Ġcooed": 9543,
    "Ġcontinuing": 9544,
    "Ġconvers": 9545,
    "Ġconqu": 9546,
    "Ġcompanion": 9547,
    "Ġcommunicate": 9548,
    "Ġcollapsed": 9549,
    "Ġclam": 9550,
    "Ġchocolates": 9551,
    "Ġchopping": 9552,
    "Ġcheetah": 9553,
    "Ġcheated": 9554,
    "Ġchatted": 9555,
    "Ġchains": 9556,
    "Ġchin": 9557,
    "Ġchilly": 9558,
    "Ġchill": 9559,
    "Ġcarries": 9560,
    "Ġcanvas": 9561,
    "Ġcouple": 9562,
    "Ġbushy": 9563,
    "Ġburrow": 9564,
    "Ġbumping": 9565,
    "Ġbubbly": 9566,
    "Ġbrakes": 9567,
    "Ġbounded": 9568,
    "Ġbooth": 9569,
    "Ġblushed": 9570,
    "Ġblob": 9571,
    "Ġbirdie": 9572,
    "Ġbeeps": 9573,
    "Ġbeautifully": 9574,
    "Ġbeaks": 9575,
    "Ġbeating": 9576,
    "Ġbanging": 9577,
    "Ġbamboo": 9578,
    "Ġaston": 9579,
    "Ġalbum": 9580,
    "Ġagreeing": 9581,
    "Ġadventurer": 9582,
    "Ġaccidents": 9583,
    "Ġabilities": 9584,
    "Ġaboard": 9585,
    "ĠZog": 9586,
    "ĠZane": 9587,
    "ĠWhistler": 9588,
    "ĠWin": 9589,
    "ĠVroom": 9590,
    "ĠUsing": 9591,
    "ĠUse": 9592,
    "ĠTrucko": 9593,
    "ĠTomorrow": 9594,
    "ĠThanksgiving": 9595,
    "ĠThink": 9596,
    "ĠTeach": 9597,
    "ĠTuck": 9598,
    "ĠThings": 9599,
    "ĠStacy": 9600,
    "ĠSpidy": 9601,
    "ĠSharp": 9602,
    "ĠShare": 9603,
    "ĠSean": 9604,
    "ĠSuper": 9605,
    "ĠSugar": 9606,
    "ĠSpeed": 9607,
    "ĠSoup": 9608,
    "ĠSister": 9609,
    "ĠSienna": 9610,
    "ĠRhythm": 9611,
    "ĠRussel": 9612,
    "ĠRory": 9613,
    "ĠRopy": 9614,
    "ĠRolo": 9615,
    "ĠRocco": 9616,
    "ĠRico": 9617,
    "ĠRavi": 9618,
    "ĠRaccoon": 9619,
    "ĠQuacky": 9620,
    "ĠPolite": 9621,
    "ĠPokie": 9622,
    "ĠPaula": 9623,
    "ĠPick": 9624,
    "ĠPerri": 9625,
    "ĠPearl": 9626,
    "ĠPast": 9627,
    "ĠOnion": 9628,
    "ĠOlivia": 9629,
    "ĠOt": 9630,
    "ĠOat": 9631,
    "ĠNora": 9632,
    "ĠNight": 9633,
    "ĠNever": 9634,
    "ĠModest": 9635,
    "ĠMillicent": 9636,
    "ĠMicroscope": 9637,
    "ĠMelinda": 9638,
    "ĠMarsha": 9639,
    "ĠMousy": 9640,
    "ĠMine": 9641,
    "ĠMick": 9642,
    "ĠMabel": 9643,
    "ĠLuca": 9644,
    "ĠLea": 9645,
    "ĠLizzie": 9646,
    "ĠLinda": 9647,
    "ĠLift": 9648,
    "ĠKeith": 9649,
    "ĠKin": 9650,
    "ĠKaty": 9651,
    "ĠKaren": 9652,
    "ĠJonny": 9653,
    "ĠJonathan": 9654,
    "ĠJodie": 9655,
    "ĠJoanna": 9656,
    "ĠJordan": 9657,
    "ĠJason": 9658,
    "ĠIm": 9659,
    "ĠIcy": 9660,
    "ĠHelping": 9661,
    "ĠHula": 9662,
    "ĠHannah": 9663,
    "ĠHana": 9664,
    "ĠHailey": 9665,
    "ĠGramps": 9666,
    "ĠGwen": 9667,
    "ĠGl": 9668,
    "ĠFleur": 9669,
    "ĠFlutter": 9670,
    "ĠFlip": 9671,
    "ĠFlash": 9672,
    "ĠFurry": 9673,
    "ĠFold": 9674,
    "ĠFighting": 9675,
    "ĠFanny": 9676,
    "ĠEva": 9677,
    "ĠDoes": 9678,
    "ĠDream": 9679,
    "ĠDee": 9680,
    "ĠCowy": 9681,
    "ĠClumsy": 9682,
    "ĠClose": 9683,
    "ĠClaws": 9684,
    "ĠChewy": 9685,
    "ĠChef": 9686,
    "ĠCheese": 9687,
    "ĠChantelle": 9688,
    "ĠCurious": 9689,
    "ĠCon": 9690,
    "ĠComp": 9691,
    "ĠCate": 9692,
    "ĠBlake": 9693,
    "ĠBonnie": 9694,
    "ĠBolly": 9695,
    "ĠBed": 9696,
    "ĠBasketball": 9697,
    "ĠAnnabel": 9698,
    "ĠAmie": 9699,
    "ĠAfterwards": 9700,
    "ĠAccidents": 9701,
    "ĠAman": 9702,
    "ĠAlf": 9703,
    "whoosh": 9704,
    "working": 9705,
    "whee": 9706,
    "welcome": 9707,
    "vive": 9708,
    "vince": 9709,
    "usan": 9710,
    "urora": 9711,
    "unted": 9712,
    "university": 9713,
    "umm": 9714,
    "umed": 9715,
    "ulped": 9716,
    "udged": 9717,
    "ucksack": 9718,
    "under": 9719,
    "stupid": 9720,
    "stantly": 9721,
    "ssil": 9722,
    "shrink": 9723,
    "shm": 9724,
    "shmallows": 9725,
    "shaped": 9726,
    "shadow": 9727,
    "sery": 9728,
    "ringe": 9729,
    "ressed": 9730,
    "res": 9731,
    "rit": 9732,
    "pting": 9733,
    "parable": 9734,
    "pr": 9735,
    "pow": 9736,
    "pher": 9737,
    "pan": 9738,
    "otion": 9739,
    "osure": 9740,
    "ordinary": 9741,
    "open": 9742,
    "oped": 9743,
    "ooper": 9744,
    "onde": 9745,
    "onfused": 9746,
    "oot": 9747,
    "oison": 9748,
    "namon": 9749,
    "nip": 9750,
    "nings": 9751,
    "marine": 9752,
    "mas": 9753,
    "lowing": 9754,
    "lls": 9755,
    "lling": 9756,
    "llent": 9757,
    "llas": 9758,
    "lest": 9759,
    "leam": 9760,
    "leaf": 9761,
    "lot": 9762,
    "like": 9763,
    "lied": 9764,
    "law": 9765,
    "laud": 9766,
    "ks": 9767,
    "ker": 9768,
    "jest": 9769,
    "izzes": 9770,
    "ively": 9771,
    "itched": 9772,
    "itam": 9773,
    "istening": 9774,
    "istmas": 9775,
    "iri": 9776,
    "inner": 9777,
    "innamon": 9778,
    "ima": 9779,
    "ightning": 9780,
    "ientist": 9781,
    "idden": 9782,
    "icking": 9783,
    "icers": 9784,
    "ically": 9785,
    "iao": 9786,
    "iens": 9787,
    "hoo": 9788,
    "hne": 9789,
    "gr": 9790,
    "freeze": 9791,
    "free": 9792,
    "flowing": 9793,
    "eta": 9794,
    "eral": 9795,
    "ellie": 9796,
    "elsey": 9797,
    "elax": 9798,
    "eadow": 9799,
    "eil": 9800,
    "ece": 9801,
    "eat": 9802,
    "ean": 9803,
    "des": 9804,
    "daughter": 9805,
    "cutter": 9806,
    "colored": 9807,
    "coat": 9808,
    "cellent": 9809,
    "bbling": 9810,
    "bs": 9811,
    "bounce": 9812,
    "boom": 9813,
    "bling": 9814,
    "bang": 9815,
    "azel": 9816,
    "aylor": 9817,
    "aura": 9818,
    "athy": 9819,
    "atelyn": 9820,
    "atform": 9821,
    "atal": 9822,
    "atalie": 9823,
    "arted": 9824,
    "ars": 9825,
    "applaud": 9826,
    "aptain": 9827,
    "aphne": 9828,
    "angerous": 9829,
    "ancelot": 9830,
    "anation": 9831,
    "ample": 9832,
    "ambled": 9833,
    "alerious": 9834,
    "Yesterday": 9835,
    "Years": 9836,
    "Whist": 9837,
    "Wo": 9838,
    "Wisdom": 9839,
    "Whe": 9840,
    "Wally": 9841,
    "Violet": 9842,
    "Trixie": 9843,
    "Ten": 9844,
    "Stella": 9845,
    "Spin": 9846,
    "Spark": 9847,
    "Sweet": 9848,
    "Squ": 9849,
    "Sc": 9850,
    "Ros": 9851,
    "Pippa": 9852,
    "Pretty": 9853,
    "Playing": 9854,
    "Play": 9855,
    "Pizza": 9856,
    "Pin": 9857,
    "Oxygen": 9858,
    "Move": 9859,
    "Mittens": 9860,
    "Mila": 9861,
    "Michael": 9862,
    "Many": 9863,
    "Mabel": 9864,
    "Lion": 9865,
    "Lauren": 9866,
    "Laura": 9867,
    "Kelsey": 9868,
    "Kay": 9869,
    "Jacky": 9870,
    "Jilly": 9871,
    "Izzy": 9872,
    "Hannah": 9873,
    "Grow": 9874,
    "Frog": 9875,
    "Finn": 9876,
    "Free": 9877,
    "Feeling": 9878,
    "Ever": 9879,
    "Elephant": 9880,
    "Eddie": 9881,
    "Daniel": 9882,
    "Dino": 9883,
    "Dare": 9884,
    "Check": 9885,
    "Catty": 9886,
    "Confused": 9887,
    "Celina": 9888,
    "Brownie": 9889,
    "Birds": 9890,
    "Bu": 9891,
    "Books": 9892,
    "Ball": 9893,
    "Auntie": 9894,
    "Ahh": 9895,
    "Ant": 9896,
    "AT": 9897,
    "?!": 9898,
    ".âĢĻ": 9899,
    "!'.": 9900,
    "!''": 9901,
    "Ġzips": 9902,
    "Ġzebras": 9903,
    "Ġyielding": 9904,
    "Ġwriggled": 9905,
    "Ġworst": 9906,
    "Ġwoodcutter": 9907,
    "Ġwinking": 9908,
    "Ġwiggling": 9909,
    "Ġwhines": 9910,
    "Ġweapons": 9911,
    "Ġwarriors": 9912,
    "Ġwaistbands": 9913,
    "Ġunlo": 9914,
    "Ġunicorns": 9915,
    "Ġunz": 9916,
    "Ġunless": 9917,
    "Ġumbrellas": 9918,
    "Ġtrusts": 9919,
    "Ġtrumpets": 9920,
    "Ġtreet": 9921,
    "Ġtraps": 9922,
    "Ġtrailer": 9923,
    "Ġtrot": 9924,
    "Ġtopp": 9925,
    "Ġtickles": 9926,
    "Ġthumbs": 9927,
    "Ġthump": 9928,
    "Ġtender": 9929,
    "Ġtantrum": 9930,
    "Ġtanks": 9931,
    "Ġtablet": 9932,
    "Ġtugging": 9933,
    "Ġtar": 9934,
    "Ġsyringe": 9935,
    "Ġswayed": 9936,
    "Ġswir": 9937,
    "Ġsurfed": 9938,
    "Ġsurvive": 9939,
    "Ġsupplied": 9940,
    "Ġsuggests": 9941,
    "Ġsuggestion": 9942,
    "Ġsucceeding": 9943,
    "Ġsubmarine": 9944,
    "Ġstudies": 9945,
    "Ġstriking": 9946,
    "Ġstump": 9947,
    "Ġstinky": 9948,
    "Ġsquir": 9949,
    "Ġsquinted": 9950,
    "Ġsprinkle": 9951,
    "Ġsprung": 9952,
    "Ġspoken": 9953,
    "Ġspeeds": 9954,
    "Ġspeaker": 9955,
    "Ġspeck": 9956,
    "Ġspied": 9957,
    "Ġsooner": 9958,
    "Ġsoftness": 9959,
    "Ġsoftest": 9960,
    "Ġsoftened": 9961,
    "Ġsoapy": 9962,
    "Ġsniffling": 9963,
    "Ġsneezy": 9964,
    "Ġsmash": 9965,
    "Ġslices": 9966,
    "Ġsleigh": 9967,
    "Ġslime": 9968,
    "Ġsignal": 9969,
    "Ġsickness": 9970,
    "Ġshyly": 9971,
    "Ġservants": 9972,
    "Ġseriously": 9973,
    "Ġserving": 9974,
    "Ġsecretly": 9975,
    "Ġsection": 9976,
    "Ġsculptures": 9977,
    "Ġscrubbing": 9978,
    "Ġscrunch": 9979,
    "Ġscrambled": 9980,
    "Ġscoops": 9981,
    "Ġscene": 9982,
    "Ġscares": 9983,
    "Ġscowl": 9984,
    "Ġscientist": 9985,
    "Ġscience": 9986,
    "Ġsatisfaction": 9987,
    "Ġsaves": 9988,
    "Ġsuspicious": 9989,
    "Ġsly": 9990,
    "Ġsinking": 9991,
    "Ġroles": 9992,
    "Ġroamed": 9993,
    "Ġribbit": 9994,
    "Ġrespecting": 9995,
    "Ġreleasing": 9996,
    "Ġrefusing": 9997,
    "Ġraincoat": 9998,
    "Ġracers": 9999,
    "Ġracer": 10000,
    "Ġraked": 10001,
    "Ġrumbling": 10002,
    "Ġrucksack": 10003,
    "Ġquieter": 10004,
    "Ġquacks": 10005,
    "Ġquizzes": 10006,
    "Ġpuffed": 10007,
    "Ġprotein": 10008,
    "Ġproperty": 10009,
    "Ġpromising": 10010,
    "Ġprizes": 10011,
    "Ġprized": 10012,
    "Ġprey": 10013,
    "Ġpostcards": 10014,
    "Ġpopsic": 10015,
    "Ġponds": 10016,
    "Ġpleasant": 10017,
    "Ġplun": 10018,
    "Ġplum": 10019,
    "Ġplatform": 10020,
    "Ġpistols": 10021,
    "Ġpiglets": 10022,
    "Ġpicnics": 10023,
    "Ġphones": 10024,
    "Ġpeck": 10025,
    "Ġpassion": 10026,
    "Ġpanting": 10027,
    "Ġpaddling": 10028,
    "Ġpuffy": 10029,
    "Ġoutsm": 10030,
    "Ġofficers": 10031,
    "Ġobstacle": 10032,
    "Ġnuzzles": 10033,
    "Ġnurses": 10034,
    "Ġnursery": 10035,
    "Ġnibbling": 10036,
    "Ġnestled": 10037,
    "Ġnearly": 10038,
    "Ġnations": 10039,
    "Ġmustn": 10040,
    "Ġmovements": 10041,
    "Ġmotors": 10042,
    "Ġmonth": 10043,
    "Ġmoan": 10044,
    "Ġmixes": 10045,
    "Ġmeows": 10046,
    "Ġmeetings": 10047,
    "Ġmattered": 10048,
    "Ġmarking": 10049,
    "Ġmarshmallows": 10050,
    "Ġmanager": 10051,
    "Ġmagnifying": 10052,
    "Ġmound": 10053,
    "Ġmend": 10054,
    "Ġmain": 10055,
    "Ġlunged": 10056,
    "Ġlonel": 10057,
    "Ġloc": 10058,
    "Ġloaf": 10059,
    "Ġlistener": 10060,
    "Ġleaping": 10061,
    "Ġlever": 10062,
    "Ġleashes": 10063,
    "Ġlazily": 10064,
    "Ġlanterns": 10065,
    "Ġlanding": 10066,
    "Ġkneels": 10067,
    "Ġknives": 10068,
    "Ġknit": 10069,
    "Ġkindest": 10070,
    "Ġjudges": 10071,
    "Ġjars": 10072,
    "Ġislands": 10073,
    "Ġinstantly": 10074,
    "Ġinseparable": 10075,
    "Ġinformation": 10076,
    "Ġincreasing": 10077,
    "Ġhummed": 10078,
    "Ġhorrible": 10079,
    "Ġhops": 10080,
    "Ġhooves": 10081,
    "Ġhonks": 10082,
    "Ġhonor": 10083,
    "Ġhoses": 10084,
    "Ġhates": 10085,
    "Ġhandles": 10086,
    "Ġhammers": 10087,
    "Ġhammered": 10088,
    "Ġgranny": 10089,
    "Ġglistening": 10090,
    "Ġglimmering": 10091,
    "Ġgulped": 10092,
    "Ġgulp": 10093,
    "Ġgroom": 10094,
    "Ġgleam": 10095,
    "Ġgiddy": 10096,
    "Ġgates": 10097,
    "Ġfuneral": 10098,
    "Ġfulfill": 10099,
    "Ġfreely": 10100,
    "Ġfollowers": 10101,
    "Ġfossil": 10102,
    "Ġfoam": 10103,
    "Ġflyer": 10104,
    "Ġfloors": 10105,
    "Ġflippers": 10106,
    "Ġflicked": 10107,
    "Ġflick": 10108,
    "Ġflashing": 10109,
    "Ġfishes": 10110,
    "Ġfights": 10111,
    "Ġfascinating": 10112,
    "Ġfail": 10113,
    "Ġfading": 10114,
    "Ġextraordinary": 10115,
    "Ġexplanation": 10116,
    "Ġexample": 10117,
    "Ġenjoys": 10118,
    "Ġeldest": 10119,
    "Ġelectric": 10120,
    "Ġdustpan": 10121,
    "Ġdrowned": 10122,
    "Ġdries": 10123,
    "Ġdoggie": 10124,
    "Ġdodge": 10125,
    "Ġdisappearing": 10126,
    "Ġdesks": 10127,
    "Ġdeserves": 10128,
    "Ġdeserved": 10129,
    "Ġdesper": 10130,
    "Ġdepths": 10131,
    "Ġdelightful": 10132,
    "Ġdefeated": 10133,
    "Ġdumb": 10134,
    "Ġditch": 10135,
    "Ġdate": 10136,
    "Ġcupcake": 10137,
    "Ġcuddling": 10138,
    "Ġcrowded": 10139,
    "Ġcreak": 10140,
    "Ġcrafts": 10141,
    "Ġcracks": 10142,
    "Ġcrouched": 10143,
    "Ġcrisp": 10144,
    "Ġcowboy": 10145,
    "Ġcosts": 10146,
    "Ġcoolness": 10147,
    "Ġcoolest": 10148,
    "Ġconversation": 10149,
    "Ġcontents": 10150,
    "Ġconsiderate": 10151,
    "Ġconnect": 10152,
[...]
